{
  "version": "1.0",
  "truncation": null,
  "padding": null,
  "added_tokens": [
    {
      "id": 0,
      "special": true,
      "content": "[PAD]",
      "single_word": false,
      "lstrip": false,
      "rstrip": false,
      "normalized": false
    },
    {
      "id": 1,
      "special": true,
      "content": "[UNK]",
      "single_word": false,
      "lstrip": false,
      "rstrip": false,
      "normalized": false
    },
    {
      "id": 2,
      "special": true,
      "content": "[CLS]",
      "single_word": false,
      "lstrip": false,
      "rstrip": false,
      "normalized": false
    },
    {
      "id": 3,
      "special": true,
      "content": "[SEP]",
      "single_word": false,
      "lstrip": false,
      "rstrip": false,
      "normalized": false
    },
    {
      "id": 4,
      "special": true,
      "content": "[MASK]",
      "single_word": false,
      "lstrip": false,
      "rstrip": false,
      "normalized": false
    }
  ],
  "normalizer": {
    "type": "BertNormalizer",
    "clean_text": false,
    "handle_chinese_chars": false,
    "strip_accents": false,
    "lowercase": true
  },
  "pre_tokenizer": {
    "type": "BertPreTokenizer"
  },
  "post_processor": null,
  "decoder": {
    "type": "WordPiece",
    "prefix": "##",
    "cleanup": true
  },
  "model": {
    "type": "WordPiece",
    "unk_token": "[UNK]",
    "continuing_subword_prefix": "##",
    "max_input_chars_per_word": 100,
    "vocab": {
      "[PAD]": 0,
      "[UNK]": 1,
      "[CLS]": 2,
      "[SEP]": 3,
      "[MASK]": 4,
      "!": 5,
      "$": 6,
      "&": 7,
      "'": 8,
      ",": 9,
      "-": 10,
      ".": 11,
      "3": 12,
      ":": 13,
      ";": 14,
      "?": 15,
      "a": 16,
      "b": 17,
      "c": 18,
      "d": 19,
      "e": 20,
      "f": 21,
      "g": 22,
      "h": 23,
      "i": 24,
      "j": 25,
      "k": 26,
      "l": 27,
      "m": 28,
      "n": 29,
      "o": 30,
      "p": 31,
      "q": 32,
      "r": 33,
      "s": 34,
      "t": 35,
      "u": 36,
      "v": 37,
      "w": 38,
      "x": 39,
      "y": 40,
      "z": 41,
      "##l": 42,
      "##o": 43,
      "##u": 44,
      "##r": 45,
      "##i": 46,
      "##s": 47,
      "##h": 48,
      "##n": 49,
      "##g": 50,
      "##a": 51,
      "##t": 52,
      "##e": 53,
      "##d": 54,
      "##y": 55,
      "##c": 56,
      "##v": 57,
      "##m": 58,
      "##b": 59,
      "##p": 60,
      "##f": 61,
      "##w": 62,
      "##x": 63,
      "##k": 64,
      "##z": 65,
      "##j": 66,
      "##q": 67,
      "th": 68,
      "##er": 69,
      "##ou": 70,
      "the": 71,
      "##nd": 72,
      "##in": 73,
      "##or": 74,
      "##at": 75,
      "##en": 76,
      "##ar": 77,
      "##es": 78,
      "##ll": 79,
      "to": 80,
      "##is": 81,
      "and": 82,
      "you": 83,
      "##th": 84,
      "##on": 85,
      "##an": 86,
      "##ing": 87,
      "no": 88,
      "of": 89,
      "wh": 90,
      "##om": 91,
      "##ve": 92,
      "wi": 93,
      "##re": 94,
      "be": 95,
      "##st": 96,
      "my": 97,
      "##ed": 98,
      "he": 99,
      "in": 100,
      "##ow": 101,
      "##ch": 102,
      "ha": 103,
      "##et": 104,
      "##ce": 105,
      "##se": 106,
      "##ut": 107,
      "that": 108,
      "sh": 109,
      "##ay": 110,
      "for": 111,
      "##ir": 112,
      "##le": 113,
      "##ld": 114,
      "is": 115,
      "##ere": 116,
      "me": 117,
      "##ur": 118,
      "##ke": 119,
      "not": 120,
      "with": 121,
      "##it": 122,
      "##im": 123,
      "##gh": 124,
      "##oo": 125,
      "we": 126,
      "st": 127,
      "it": 128,
      "##ent": 129,
      "##us": 130,
      "your": 131,
      "thou": 132,
      "##ad": 133,
      "pr": 134,
      "##ome": 135,
      "as": 136,
      "##io": 137,
      "##ath": 138,
      "##al": 139,
      "his": 140,
      "but": 141,
      "this": 142,
      "so": 143,
      "have": 144,
      "##est": 145,
      "##id": 146,
      "##ard": 147,
      "li": 148,
      "##am": 149,
      "##ly": 150,
      "##as": 151,
      "##ord": 152,
      "##all": 153,
      "##ght": 154,
      "on": 155,
      "him": 156,
      "do": 157,
      "de": 158,
      "##ess": 159,
      "fr": 160,
      "##ck": 161,
      "se": 162,
      "what": 163,
      "an": 164,
      "##ain": 165,
      "thy": 166,
      "will": 167,
      "##ould": 168,
      "##ood": 169,
      "##ore": 170,
      "##ich": 171,
      "re": 172,
      "##ther": 173,
      "##ge": 174,
      "##ra": 175,
      "##ue": 176,
      "king": 177,
      "##li": 178,
      "go": 179,
      "all": 180,
      "##and": 181,
      "her": 182,
      "##pe": 183,
      "##ver": 184,
      "by": 185,
      "##ie": 186,
      "su": 187,
      "##ter": 188,
      "##ion": 189,
      "lo": 190,
      "shall": 191,
      "ma": 192,
      "lord": 193,
      "our": 194,
      "##our": 195,
      "tr": 196,
      "ne": 197,
      "br": 198,
      "if": 199,
      "##ell": 200,
      "ch": 201,
      "are": 202,
      "##ul": 203,
      "thee": 204,
      "##ight": 205,
      "bo": 206,
      "good": 207,
      "##ry": 208,
      "kn": 209,
      "com": 210,
      "up": 211,
      "##ill": 212,
      "now": 213,
      "le": 214,
      "un": 215,
      "##ence": 216,
      "##ust": 217,
      "or": 218,
      "##il": 219,
      "##ous": 220,
      "##fe": 221,
      "##ct": 222,
      "she": 223,
      "there": 224,
      "##um": 225,
      "##ius": 226,
      "mar": 227,
      "at": 228,
      "sir": 229,
      "##ant": 230,
      "fa": 231,
      "con": 232,
      "come": 233,
      "from": 234,
      "mo": 235,
      "here": 236,
      "##sel": 237,
      "du": 238,
      "than": 239,
      "then": 240,
      "##ine": 241,
      "man": 242,
      "##art": 243,
      "am": 244,
      "##ak": 245,
      "##one": 246,
      "which": 247,
      "let": 248,
      "more": 249,
      "ll": 250,
      "en": 251,
      "was": 252,
      "##own": 253,
      "##au": 254,
      "would": 255,
      "##ear": 256,
      "pro": 257,
      "##ast": 258,
      "bl": 259,
      "##ers": 260,
      "they": 261,
      "##ate": 262,
      "can": 263,
      "##ive": 264,
      "how": 265,
      "##ic": 266,
      "##ab": 267,
      "say": 268,
      "##ven": 269,
      "well": 270,
      "them": 271,
      "##em": 272,
      "ar": 273,
      "sw": 274,
      "##ap": 275,
      "##ame": 276,
      "##ol": 277,
      "##ward": 278,
      "their": 279,
      "cl": 280,
      "love": 281,
      "##un": 282,
      "gr": 283,
      "po": 284,
      "rich": 285,
      "##ish": 286,
      "##ee": 287,
      "duke": 288,
      "who": 289,
      "##self": 290,
      "us": 291,
      "##ort": 292,
      "know": 293,
      "hath": 294,
      "may": 295,
      "spe": 296,
      "war": 297,
      "##ake": 298,
      "##ather": 299,
      "gre": 300,
      "ho": 301,
      "when": 302,
      "where": 303,
      "wor": 304,
      "one": 305,
      "were": 306,
      "##ond": 307,
      "##uch": 308,
      "like": 309,
      "pl": 310,
      "##ick": 311,
      "mad": 312,
      "##nds": 313,
      "##ink": 314,
      "##ong": 315,
      "make": 316,
      "upon": 317,
      "ag": 318,
      "##ure": 319,
      "should": 320,
      "##ot": 321,
      "see": 322,
      "##ist": 323,
      "did": 324,
      "must": 325,
      "fir": 326,
      "##ig": 327,
      "##fore": 328,
      "richard": 329,
      "yet": 330,
      "##ble": 331,
      "que": 332,
      "##ook": 333,
      "gl": 334,
      "had": 335,
      "queen": 336,
      "rome": 337,
      "nor": 338,
      "men": 339,
      "sp": 340,
      "##ves": 341,
      "##ind": 342,
      "##ro": 343,
      "tw": 344,
      "##cent": 345,
      "some": 346,
      "##pp": 347,
      "gra": 348,
      "first": 349,
      "why": 350,
      "ed": 351,
      "sa": 352,
      "##other": 353,
      "god": 354,
      "too": 355,
      "##ady": 356,
      "##ri": 357,
      "##are": 358,
      "edward": 359,
      "again": 360,
      "##ity": 361,
      "father": 362,
      "tis": 363,
      "tim": 364,
      "##centio": 365,
      "speak": 366,
      "death": 367,
      "##ff": 368,
      "al": 369,
      "out": 370,
      "##ful": 371,
      "hast": 372,
      "##ice": 373,
      "gent": 374,
      "##ince": 375,
      "##oun": 376,
      "hen": 377,
      "heart": 378,
      "give": 379,
      "##ep": 380,
      "##ance": 381,
      "henry": 382,
      "look": 383,
      "take": 384,
      "##ork": 385,
      "ab": 386,
      "##ound": 387,
      "york": 388,
      "day": 389,
      "ex": 390,
      "these": 391,
      "gentle": 392,
      "dis": 393,
      "romeo": 394,
      "ser": 395,
      "##ester": 396,
      "mine": 397,
      "tell": 398,
      "such": 399,
      "hon": 400,
      "son": 401,
      "cor": 402,
      "##ace": 403,
      "##man": 404,
      "pe": 405,
      "##ings": 406,
      "fl": 407,
      "##ag": 408,
      "time": 409,
      "hear": 410,
      "##cester": 411,
      "off": 412,
      "glou": 413,
      "##ave": 414,
      "##ack": 415,
      "gloucester": 416,
      "ear": 417,
      "##ose": 418,
      "hea": 419,
      "brother": 420,
      "##ies": 421,
      "think": 422,
      "lady": 423,
      "##row": 424,
      "##ng": 425,
      "##wn": 426,
      "##ire": 427,
      "##ery": 428,
      "##ign": 429,
      "pet": 430,
      "blood": 431,
      "bre": 432,
      "aw": 433,
      "##ian": 434,
      "##ber": 435,
      "##ont": 436,
      "##ness": 437,
      "most": 438,
      "##oy": 439,
      "des": 440,
      "ever": 441,
      "##iz": 442,
      "per": 443,
      "##age": 444,
      "lu": 445,
      "qu": 446,
      "##orn": 447,
      "ey": 448,
      "##ide": 449,
      "##ious": 450,
      "##ise": 451,
      "word": 452,
      "life": 453,
      "ii": 454,
      "vin": 455,
      "##to": 456,
      "ju": 457,
      "frie": 458,
      "##per": 459,
      "##ling": 460,
      "##land": 461,
      "##wick": 462,
      "vincentio": 463,
      "##oul": 464,
      "art": 465,
      "warwick": 466,
      "##uck": 467,
      "made": 468,
      "##ase": 469,
      "fear": 470,
      "##ither": 471,
      "pray": 472,
      "##ving": 473,
      "ad": 474,
      "##ft": 475,
      "call": 476,
      "fair": 477,
      "mer": 478,
      "much": 479,
      "##ile": 480,
      "bet": 481,
      "##urn": 482,
      "##iol": 483,
      "##ens": 484,
      "never": 485,
      "##op": 486,
      "##eet": 487,
      "str": 488,
      "sec": 489,
      "great": 490,
      "stand": 491,
      "##el": 492,
      "##pt": 493,
      "##ang": 494,
      "cr": 495,
      "comm": 496,
      "##inius": 497,
      "la": 498,
      "sc": 499,
      "##igh": 500,
      "sweet": 501,
      "er": 502,
      "##out": 503,
      "##aught": 504,
      "##os": 505,
      "doth": 506,
      "coun": 507,
      "fo": 508,
      "true": 509,
      "heaven": 510,
      "night": 511,
      "ay": 512,
      "##qu": 513,
      "##ough": 514,
      "new": 515,
      "cann": 516,
      "honour": 517,
      "part": 518,
      "##nder": 519,
      "before": 520,
      "##ild": 521,
      "petr": 522,
      "ple": 523,
      "thus": 524,
      "both": 525,
      "##uchio": 526,
      "cannot": 527,
      "petruchio": 528,
      "pre": 529,
      "##orrow": 530,
      "##urse": 531,
      "any": 532,
      "##ation": 533,
      "hand": 534,
      "prince": 535,
      "##cc": 536,
      "##lo": 537,
      "being": 538,
      "cap": 539,
      "name": 540,
      "wr": 541,
      "##ina": 542,
      "co": 543,
      "away": 544,
      "##thing": 545,
      "##der": 546,
      "noble": 547,
      "##anus": 548,
      "##alt": 549,
      "coriol": 550,
      "coriolanus": 551,
      "been": 552,
      "bear": 553,
      "##tle": 554,
      "##ree": 555,
      "##ster": 556,
      "juli": 557,
      "##enius": 558,
      "menenius": 559,
      "very": 560,
      "head": 561,
      "##ved": 562,
      "juliet": 563,
      "##ment": 564,
      "##ass": 565,
      "done": 566,
      "own": 567,
      "mean": 568,
      "second": 569,
      "ange": 570,
      "cont": 571,
      "other": 572,
      "way": 573,
      "##ouse": 574,
      "myself": 575,
      "rem": 576,
      "down": 577,
      "##ost": 578,
      "soul": 579,
      "##aint": 580,
      "##ears": 581,
      "pa": 582,
      "##ps": 583,
      "af": 584,
      "leave": 585,
      "therefore": 586,
      "sl": 587,
      "poor": 588,
      "world": 589,
      "##ress": 590,
      "##sc": 591,
      "##ower": 592,
      "stay": 593,
      "against": 594,
      "im": 595,
      "though": 596,
      "dead": 597,
      "##gar": 598,
      "beg": 599,
      "##aughter": 600,
      "##ach": 601,
      "##ors": 602,
      "isab": 603,
      "arm": 604,
      "long": 605,
      "##ause": 606,
      "##less": 607,
      "##ith": 608,
      "##ows": 609,
      "##ite": 610,
      "pres": 611,
      "serv": 612,
      "angelo": 613,
      "##ty": 614,
      "##roke": 615,
      "kee": 616,
      "rep": 617,
      "el": 618,
      "old": 619,
      "vi": 620,
      "house": 621,
      "nay": 622,
      "merc": 623,
      "##ull": 624,
      "##ph": 625,
      "##atch": 626,
      "grace": 627,
      "might": 628,
      "wife": 629,
      "clar": 630,
      "##ham": 631,
      "##ction": 632,
      "eyes": 633,
      "clarence": 634,
      "till": 635,
      "wom": 636,
      "live": 637,
      "mother": 638,
      "cit": 639,
      "##eth": 640,
      "foo": 641,
      "nurse": 642,
      "##ts": 643,
      "##broke": 644,
      "##ief": 645,
      "child": 646,
      "##ss": 647,
      "lie": 648,
      "many": 649,
      "citiz": 650,
      "even": 651,
      "comes": 652,
      "thr": 653,
      "master": 654,
      "tran": 655,
      "friends": 656,
      "buck": 657,
      "die": 658,
      "res": 659,
      "##ied": 660,
      "boling": 661,
      "bolingbroke": 662,
      "set": 663,
      "nothing": 664,
      "iii": 665,
      "rest": 666,
      "##sw": 667,
      "##atter": 668,
      "lords": 669,
      "whose": 670,
      "cam": 671,
      "##ip": 672,
      "cons": 673,
      "sic": 674,
      "fri": 675,
      "peace": 676,
      "crown": 677,
      "dr": 678,
      "hence": 679,
      "put": 680,
      "thought": 681,
      "dear": 682,
      "##ella": 683,
      "better": 684,
      "isabella": 685,
      "har": 686,
      "mist": 687,
      "ty": 688,
      "##come": 689,
      "##able": 690,
      "friar": 691,
      "##ks": 692,
      "##ingham": 693,
      "leont": 694,
      "leontes": 695,
      "mur": 696,
      "buckingham": 697,
      "daughter": 698,
      "##cio": 699,
      "##oud": 700,
      "tong": 701,
      "##ison": 702,
      "comp": 703,
      "those": 704,
      "unto": 705,
      "could": 706,
      "##iss": 707,
      "au": 708,
      "bes": 709,
      "gone": 710,
      "still": 711,
      "prov": 712,
      "two": 713,
      "jo": 714,
      "##end": 715,
      "best": 716,
      "sle": 717,
      "##iv": 718,
      "##ates": 719,
      "young": 720,
      "##ittle": 721,
      "marc": 722,
      "tranio": 723,
      "murder": 724,
      "bid": 725,
      "gentleman": 726,
      "acc": 727,
      "cour": 728,
      "lucio": 729,
      "foll": 730,
      "marcius": 731,
      "pur": 732,
      "since": 733,
      "news": 734,
      "fare": 735,
      "hour": 736,
      "kind": 737,
      "little": 738,
      "##eed": 739,
      "##kes": 740,
      "##ield": 741,
      "sicinius": 742,
      "##ia": 743,
      "##well": 744,
      "hel": 745,
      "cur": 746,
      "far": 747,
      "##les": 748,
      "conf": 749,
      "fell": 750,
      "sm": 751,
      "margar": 752,
      "margaret": 753,
      "gu": 754,
      "thing": 755,
      "##ought": 756,
      "##ulet": 757,
      "capulet": 758,
      "ere": 759,
      "##ock": 760,
      "##eng": 761,
      "show": 762,
      "##ardon": 763,
      "once": 764,
      "##une": 765,
      "high": 766,
      "pardon": 767,
      "tre": 768,
      "##ange": 769,
      "whom": 770,
      "##liff": 771,
      "sub": 772,
      "char": 773,
      "##illo": 774,
      "hold": 775,
      "else": 776,
      "back": 777,
      "iv": 778,
      "right": 779,
      "himself": 780,
      "camillo": 781,
      "ap": 782,
      "ban": 783,
      "power": 784,
      "face": 785,
      "bra": 786,
      "ind": 787,
      "vir": 788,
      "##ail": 789,
      "thine": 790,
      "beh": 791,
      "##alk": 792,
      "tongue": 793,
      "em": 794,
      "par": 795,
      "##cious": 796,
      "wel": 797,
      "keep": 798,
      "eli": 799,
      "sen": 800,
      "##ier": 801,
      "##zab": 802,
      "forth": 803,
      "words": 804,
      "elizab": 805,
      "elizabeth": 806,
      "hus": 807,
      "none": 808,
      "##lt": 809,
      "##iness": 810,
      "##arina": 811,
      "seem": 812,
      "need": 813,
      "earth": 814,
      "dre": 815,
      "end": 816,
      "kath": 817,
      "##by": 818,
      "##ason": 819,
      "hope": 820,
      "katharina": 821,
      "##dy": 822,
      "##ced": 823,
      "##red": 824,
      "##uty": 825,
      "app": 826,
      "vol": 827,
      "##apt": 828,
      "ben": 829,
      "bus": 830,
      "under": 831,
      "##band": 832,
      "bring": 833,
      "madam": 834,
      "breath": 835,
      "law": 836,
      "after": 837,
      "home": 838,
      "pom": 839,
      "##oub": 840,
      "tri": 841,
      "boy": 842,
      "husband": 843,
      "##old": 844,
      "##ces": 845,
      "##ory": 846,
      "fort": 847,
      "##ople": 848,
      "find": 849,
      "##led": 850,
      "farewell": 851,
      "tra": 852,
      "##sh": 853,
      "##ret": 854,
      "citizen": 855,
      "bapt": 856,
      "just": 857,
      "##for": 858,
      "happ": 859,
      "tru": 860,
      "worth": 861,
      "##ista": 862,
      "people": 863,
      "lucentio": 864,
      "count": 865,
      "cous": 866,
      "came": 867,
      "joy": 868,
      "te": 869,
      "##ect": 870,
      "##ister": 871,
      "##ortens": 872,
      "place": 873,
      "every": 874,
      "imp": 875,
      "cousin": 876,
      "hortens": 877,
      "wo": 878,
      "ye": 879,
      "##tain": 880,
      "##reat": 881,
      "hands": 882,
      "##ird": 883,
      "hastings": 884,
      "baptista": 885,
      "##fort": 886,
      "##int": 887,
      "##umber": 888,
      "said": 889,
      "help": 890,
      "banish": 891,
      "hortensio": 892,
      "esc": 893,
      "nat": 894,
      "ro": 895,
      "##cl": 896,
      "##utus": 897,
      "friend": 898,
      "full": 899,
      "mind": 900,
      "over": 901,
      "pat": 902,
      "pass": 903,
      "roy": 904,
      "into": 905,
      "light": 906,
      "brutus": 907,
      "##ague": 908,
      "please": 909,
      "servant": 910,
      "welcome": 911,
      "car": 912,
      "cause": 913,
      "##ience": 914,
      "dost": 915,
      "kill": 916,
      "mis": 917,
      "turn": 918,
      "tears": 919,
      "dev": 920,
      "answ": 921,
      "pros": 922,
      "north": 923,
      "##ried": 924,
      "about": 925,
      "present": 926,
      "mistress": 927,
      "fall": 928,
      "gi": 929,
      "ob": 930,
      "shame": 931,
      "unc": 932,
      "eng": 933,
      "grum": 934,
      "follow": 935,
      "prosper": 936,
      "fal": 937,
      "sorrow": 938,
      "##ud": 939,
      "##men": 940,
      "marry": 941,
      "wrong": 942,
      "provost": 943,
      "answer": 944,
      "land": 945,
      "last": 946,
      "morrow": 947,
      "##ins": 948,
      "bed": 949,
      "beli": 950,
      "heard": 951,
      "meet": 952,
      "##its": 953,
      "##vers": 954,
      "fe": 955,
      "sign": 956,
      "##ient": 957,
      "##vere": 958,
      "##vol": 959,
      "##xt": 960,
      "##ury": 961,
      "##alus": 962,
      "maid": 963,
      "makes": 964,
      "indeed": 965,
      "##ary": 966,
      "weep": 967,
      "ant": 968,
      "grumio": 969,
      "cliff": 970,
      "less": 971,
      "##erd": 972,
      "wilt": 973,
      "state": 974,
      "cominius": 975,
      "##eel": 976,
      "escalus": 977,
      "clifford": 978,
      "##sand": 979,
      "##arn": 980,
      "has": 981,
      "##pey": 982,
      "disp": 983,
      "eye": 984,
      "paul": 985,
      "pompey": 986,
      "ret": 987,
      "##ouch": 988,
      "wit": 989,
      "forg": 990,
      "##ition": 991,
      "thousand": 992,
      "##esty": 993,
      "play": 994,
      "hither": 995,
      "##enes": 996,
      "bec": 997,
      "sun": 998,
      "##ult": 999,
      "comfort": 1000,
      "enem": 1001,
      "##aud": 1002,
      "fool": 1003,
      "doub": 1004,
      "talk": 1005,
      "##vy": 1006,
      "##mio": 1007,
      "##fid": 1008,
      "three": 1009,
      "while": 1010,
      "##ceive": 1011,
      "##utio": 1012,
      "within": 1013,
      "##asure": 1014,
      "##selves": 1015,
      "gremio": 1016,
      "adv": 1017,
      "mercutio": 1018,
      "##oth": 1019,
      "##ne": 1020,
      "##ken": 1021,
      "another": 1022,
      "grief": 1023,
      "gracious": 1024,
      "vill": 1025,
      "##lf": 1026,
      "##oly": 1027,
      "##ru": 1028,
      "##ford": 1029,
      "only": 1030,
      "prove": 1031,
      "claud": 1032,
      "aufid": 1033,
      "sleep": 1034,
      "##umberland": 1035,
      "northumberland": 1036,
      "claudio": 1037,
      "aufidius": 1038,
      "dra": 1039,
      "hum": 1040,
      "hate": 1041,
      "faith": 1042,
      "thank": 1043,
      "poli": 1044,
      "fellow": 1045,
      "royal": 1046,
      "false": 1047,
      "mont": 1048,
      "rather": 1049,
      "##ject": 1050,
      "##chess": 1051,
      "dep": 1052,
      "duchess": 1053,
      "woman": 1054,
      "fortune": 1055,
      "lay": 1056,
      "pers": 1057,
      "val": 1058,
      "third": 1059,
      "##ised": 1060,
      "att": 1061,
      "paulina": 1062,
      "sound": 1063,
      "ta": 1064,
      "##oke": 1065,
      "##cus": 1066,
      "inst": 1067,
      "vo": 1068,
      "wish": 1069,
      "##balt": 1070,
      "##itor": 1071,
      "stri": 1072,
      "sold": 1073,
      "deli": 1074,
      "body": 1075,
      "tybalt": 1076,
      "court": 1077,
      "virt": 1078,
      "hang": 1079,
      "##rant": 1080,
      "##ute": 1081,
      "ass": 1082,
      "##ices": 1083,
      "murderer": 1084,
      "matter": 1085,
      "sent": 1086,
      "use": 1087,
      "##ren": 1088,
      "##ily": 1089,
      "##cy": 1090,
      "shalt": 1091,
      "deed": 1092,
      "sword": 1093,
      "##eech": 1094,
      "deser": 1095,
      "remem": 1096,
      "beseech": 1097,
      "aut": 1098,
      "care": 1099,
      "dar": 1100,
      "fight": 1101,
      "##orse": 1102,
      "lies": 1103,
      "mark": 1104,
      "##aun": 1105,
      "belie": 1106,
      "##ged": 1107,
      "##ca": 1108,
      "##xenes": 1109,
      "wid": 1110,
      "##ush": 1111,
      "sovere": 1112,
      "command": 1113,
      "benvol": 1114,
      "villain": 1115,
      "polixenes": 1116,
      "sovereign": 1117,
      "benvolio": 1118,
      "den": 1119,
      "get": 1120,
      "prison": 1121,
      "grave": 1122,
      "content": 1123,
      "country": 1124,
      "##olycus": 1125,
      "montague": 1126,
      "autolycus": 1127,
      "want": 1128,
      "years": 1129,
      "##air": 1130,
      "proud": 1131,
      "reven": 1132,
      "reason": 1133,
      "supp": 1134,
      "sheph": 1135,
      "swear": 1136,
      "dream": 1137,
      "business": 1138,
      "happy": 1139,
      "shepherd": 1140,
      "int": 1141,
      "sea": 1142,
      "##pect": 1143,
      "##fect": 1144,
      "ent": 1145,
      "enough": 1146,
      "holy": 1147,
      "truth": 1148,
      "nature": 1149,
      "doubt": 1150,
      "bian": 1151,
      "born": 1152,
      "cond": 1153,
      "ri": 1154,
      "##ior": 1155,
      "##we": 1156,
      "things": 1157,
      "##ench": 1158,
      "##esh": 1159,
      "without": 1160,
      "che": 1161,
      "saw": 1162,
      "break": 1163,
      "common": 1164,
      "arms": 1165,
      "foul": 1166,
      "pity": 1167,
      "yield": 1168,
      "##ten": 1169,
      "bea": 1170,
      "prom": 1171,
      "lives": 1172,
      "send": 1173,
      "clown": 1174,
      "appe": 1175,
      "prospero": 1176,
      "bianca": 1177,
      "op": 1178,
      "##ener": 1179,
      "##umn": 1180,
      "spir": 1181,
      "save": 1182,
      "##aunt": 1183,
      "free": 1184,
      "mess": 1185,
      "sit": 1186,
      "enter": 1187,
      "laur": 1188,
      "uncle": 1189,
      "believe": 1190,
      "ah": 1191,
      "horse": 1192,
      "kate": 1193,
      "kiss": 1194,
      "sister": 1195,
      "watch": 1196,
      "##ili": 1197,
      "##ew": 1198,
      "##ator": 1199,
      "##ament": 1200,
      "##anger": 1201,
      "woe": 1202,
      "laurence": 1203,
      "som": 1204,
      "##ounds": 1205,
      "gods": 1206,
      "disc": 1207,
      "subject": 1208,
      "aff": 1209,
      "bu": 1210,
      "cra": 1211,
      "city": 1212,
      "tem": 1213,
      "##if": 1214,
      "##aw": 1215,
      "##ting": 1216,
      "##ec": 1217,
      "yourself": 1218,
      "##ains": 1219,
      "serving": 1220,
      "purp": 1221,
      "return": 1222,
      "##ted": 1223,
      "##anc": 1224,
      "##rel": 1225,
      "stra": 1226,
      "yours": 1227,
      "does": 1228,
      "looks": 1229,
      "bloody": 1230,
      "means": 1231,
      "through": 1232,
      "aum": 1233,
      "ca": 1234,
      "fire": 1235,
      "mus": 1236,
      "oath": 1237,
      "sin": 1238,
      "win": 1239,
      "##br": 1240,
      "##erle": 1241,
      "##ets": 1242,
      "anne": 1243,
      "requ": 1244,
      "##gether": 1245,
      "left": 1246,
      "children": 1247,
      "##ength": 1248,
      "volumn": 1249,
      "remember": 1250,
      "aumerle": 1251,
      "volumnia": 1252,
      "bur": 1253,
      "##dd": 1254,
      "beat": 1255,
      "wear": 1256,
      "bless": 1257,
      "mercy": 1258,
      "traitor": 1259,
      "tender": 1260,
      "england": 1261,
      "fit": 1262,
      "mon": 1263,
      "touch": 1264,
      "##ues": 1265,
      "##use": 1266,
      "##king": 1267,
      "told": 1268,
      "maj": 1269,
      "near": 1270,
      "##onder": 1271,
      "cold": 1272,
      "##enger": 1273,
      "worthy": 1274,
      "servingman": 1275,
      "music": 1276,
      "cry": 1277,
      "gaunt": 1278,
      "hard": 1279,
      "late": 1280,
      "sad": 1281,
      "saint": 1282,
      "##ial": 1283,
      "##oman": 1284,
      "wind": 1285,
      "soon": 1286,
      "##ash": 1287,
      "deep": 1288,
      "gold": 1289,
      "##unes": 1290,
      "grey": 1291,
      "##ffer": 1292,
      "##oss": 1293,
      "foot": 1294,
      "person": 1295,
      "messenger": 1296,
      "danger": 1297,
      "either": 1298,
      "ill": 1299,
      "run": 1300,
      "sight": 1301,
      "sil": 1302,
      "##aim": 1303,
      "together": 1304,
      "meth": 1305,
      "##alth": 1306,
      "##ides": 1307,
      "seen": 1308,
      "thyself": 1309,
      "sure": 1310,
      "warrant": 1311,
      "days": 1312,
      "flor": 1313,
      "report": 1314,
      "justice": 1315,
      "##form": 1316,
      "because": 1317,
      "majesty": 1318,
      "bio": 1319,
      "fie": 1320,
      "gener": 1321,
      "met": 1322,
      "mir": 1323,
      "##hn": 1324,
      "##ndell": 1325,
      "##ime": 1326,
      "##ade": 1327,
      "trust": 1328,
      "unt": 1329,
      "##fend": 1330,
      "pluck": 1331,
      "john": 1332,
      "biondell": 1333,
      "biondello": 1334,
      "cates": 1335,
      "tit": 1336,
      "wat": 1337,
      "##az": 1338,
      "##ey": 1339,
      "##ms": 1340,
      "toward": 1341,
      "whil": 1342,
      "heir": 1343,
      "##ents": 1344,
      "rec": 1345,
      "learn": 1346,
      "##olk": 1347,
      "twas": 1348,
      "heavy": 1349,
      "paris": 1350,
      "##retch": 1351,
      "widow": 1352,
      "catesby": 1353,
      "bar": 1354,
      "fly": 1355,
      "##dom": 1356,
      "##any": 1357,
      "##ters": 1358,
      "bold": 1359,
      "strange": 1360,
      "found": 1361,
      "min": 1362,
      "##ner": 1363,
      "##folk": 1364,
      "##oura": 1365,
      "inf": 1366,
      "##eter": 1367,
      "##enty": 1368,
      "herm": 1369,
      "lost": 1370,
      "norfolk": 1371,
      "times": 1372,
      "alas": 1373,
      "haste": 1374,
      "gentlemen": 1375,
      "ears": 1376,
      "confess": 1377,
      "signior": 1378,
      "air": 1379,
      "age": 1380,
      "past": 1381,
      "ru": 1382,
      "vis": 1383,
      "##outh": 1384,
      "##ceed": 1385,
      "ready": 1386,
      "##ione": 1387,
      "canst": 1388,
      "says": 1389,
      "##izel": 1390,
      "quick": 1391,
      "liege": 1392,
      "behold": 1393,
      "spirit": 1394,
      "purpose": 1395,
      "florizel": 1396,
      "hermione": 1397,
      "bon": 1398,
      "each": 1399,
      "fur": 1400,
      "hun": 1401,
      "red": 1402,
      "woo": 1403,
      "##som": 1404,
      "read": 1405,
      "loss": 1406,
      "thanks": 1407,
      "##aster": 1408,
      "ground": 1409,
      "twenty": 1410,
      "alone": 1411,
      "desp": 1412,
      "trib": 1413,
      "draw": 1414,
      "open": 1415,
      "div": 1416,
      "ten": 1417,
      "##ove": 1418,
      "##ger": 1419,
      "##ars": 1420,
      "##rew": 1421,
      "##oop": 1422,
      "brought": 1423,
      "married": 1424,
      "fast": 1425,
      "prof": 1426,
      "desire": 1427,
      "stands": 1428,
      "##osed": 1429,
      "slain": 1430,
      "service": 1431,
      "thoughts": 1432,
      "devil": 1433,
      "deliver": 1434,
      "entreat": 1435,
      "rivers": 1436,
      "four": 1437,
      "lest": 1438,
      "##iest": 1439,
      "##ible": 1440,
      "##ixt": 1441,
      "##hy": 1442,
      "##aves": 1443,
      "##mer": 1444,
      "##mond": 1445,
      "having": 1446,
      "france": 1447,
      "##ours": 1448,
      "lew": 1449,
      "fault": 1450,
      "richmond": 1451,
      "knows": 1452,
      "didst": 1453,
      "jud": 1454,
      "strong": 1455,
      "women": 1456,
      "charge": 1457,
      "strike": 1458,
      "beauty": 1459,
      "straight": 1460,
      "bat": 1461,
      "cut": 1462,
      "dish": 1463,
      "sur": 1464,
      "##iet": 1465,
      "##bast": 1466,
      "inc": 1467,
      "##ution": 1468,
      "##ley": 1469,
      "ask": 1470,
      "sebast": 1471,
      "lead": 1472,
      "grant": 1473,
      "ext": 1474,
      "exec": 1475,
      "quar": 1476,
      "resol": 1477,
      "hours": 1478,
      "enemy": 1479,
      "##ilia": 1480,
      "general": 1481,
      "sebastian": 1482,
      "bound": 1483,
      "fi": 1484,
      "ox": 1485,
      "##vent": 1486,
      "##mb": 1487,
      "##ple": 1488,
      "##ert": 1489,
      "half": 1490,
      "lose": 1491,
      "poss": 1492,
      "speed": 1493,
      "##ured": 1494,
      "offic": 1495,
      "senator": 1496,
      "yea": 1497,
      "anton": 1498,
      "revenge": 1499,
      "ac": 1500,
      "cle": 1501,
      "cal": 1502,
      "cast": 1503,
      "duty": 1504,
      "tak": 1505,
      "##und": 1506,
      "##sue": 1507,
      "##ning": 1508,
      "##gs": 1509,
      "##eal": 1510,
      "youth": 1511,
      "nob": 1512,
      "##cept": 1513,
      "itself": 1514,
      "mock": 1515,
      "post": 1516,
      "plant": 1517,
      "##inks": 1518,
      "twere": 1519,
      "honest": 1520,
      "counsel": 1521,
      "attend": 1522,
      "antonio": 1523,
      "dam": 1524,
      "morn": 1525,
      "ven": 1526,
      "##ua": 1527,
      "##no": 1528,
      "hell": 1529,
      "forb": 1530,
      "prith": 1531,
      "soft": 1532,
      "change": 1533,
      "marri": 1534,
      "point": 1535,
      "work": 1536,
      "flatter": 1537,
      "strength": 1538,
      "prep": 1539,
      "citizens": 1540,
      "prithee": 1541,
      "bit": 1542,
      "burn": 1543,
      "dist": 1544,
      "field": 1545,
      "ge": 1546,
      "side": 1547,
      "ter": 1548,
      "wretch": 1549,
      "short": 1550,
      "##alo": 1551,
      "suit": 1552,
      "known": 1553,
      "unless": 1554,
      "##fection": 1555,
      "##ump": 1556,
      "hearts": 1557,
      "fearful": 1558,
      "heavens": 1559,
      "guil": 1560,
      "patience": 1561,
      "tale": 1562,
      "oxford": 1563,
      "dare": 1564,
      "lad": 1565,
      "ra": 1566,
      "wed": 1567,
      "wonder": 1568,
      "yes": 1569,
      "##dle": 1570,
      "##cess": 1571,
      "##bs": 1572,
      "##bow": 1573,
      "##ined": 1574,
      "##ons": 1575,
      "stir": 1576,
      "##ions": 1577,
      "bosom": 1578,
      "grow": 1579,
      "##ortal": 1580,
      "something": 1581,
      "pleas": 1582,
      "pret": 1583,
      "pale": 1584,
      "harm": 1585,
      "brave": 1586,
      "appear": 1587,
      "lewis": 1588,
      "marriage": 1589,
      "gon": 1590,
      "sk": 1591,
      "sat": 1592,
      "##up": 1593,
      "##zalo": 1594,
      "##urs": 1595,
      "withal": 1596,
      "##oot": 1597,
      "##rah": 1598,
      "loving": 1599,
      "sirrah": 1600,
      "serve": 1601,
      "peter": 1602,
      "souls": 1603,
      "hark": 1604,
      "company": 1605,
      "highness": 1606,
      "##ship": 1607,
      "voices": 1608,
      "virtue": 1609,
      "cheer": 1610,
      "gonzalo": 1611,
      "roman": 1612,
      "sing": 1613,
      "sick": 1614,
      "wast": 1615,
      "##lish": 1616,
      "##of": 1617,
      "##iers": 1618,
      "##ech": 1619,
      "##bury": 1620,
      "##orge": 1621,
      "become": 1622,
      "##oward": 1623,
      "pra": 1624,
      "suffer": 1625,
      "neither": 1626,
      "next": 1627,
      "knew": 1628,
      "order": 1629,
      "worse": 1630,
      "plain": 1631,
      "perd": 1632,
      "##ments": 1633,
      "##ween": 1634,
      "act": 1635,
      "bad": 1636,
      "dro": 1637,
      "fet": 1638,
      "gar": 1639,
      "lanc": 1640,
      "pie": 1641,
      "same": 1642,
      "sake": 1643,
      "##most": 1644,
      "##wer": 1645,
      "reg": 1646,
      "march": 1647,
      "black": 1648,
      "cloud": 1649,
      "seek": 1650,
      "##ount": 1651,
      "abs": 1652,
      "pleasure": 1653,
      "elbow": 1654,
      "course": 1655,
      "virg": 1656,
      "enemies": 1657,
      "methinks": 1658,
      "lancaster": 1659,
      "book": 1660,
      "cro": 1661,
      "dire": 1662,
      "gates": 1663,
      "mow": 1664,
      "mouth": 1665,
      "rat": 1666,
      "ve": 1667,
      "ver": 1668,
      "wall": 1669,
      "wise": 1670,
      "##ac": 1671,
      "tower": 1672,
      "##ita": 1673,
      "##oose": 1674,
      "weak": 1675,
      "priv": 1676,
      "##ally": 1677,
      "##anda": 1678,
      "coming": 1679,
      "procl": 1680,
      "poison": 1681,
      "usur": 1682,
      "spr": 1683,
      "took": 1684,
      "exp": 1685,
      "##ize": 1686,
      "merry": 1687,
      "between": 1688,
      "tyr": 1689,
      "given": 1690,
      "forget": 1691,
      "##ceived": 1692,
      "miranda": 1693,
      "title": 1694,
      "further": 1695,
      "ev": 1696,
      "gave": 1697,
      "jest": 1698,
      "inter": 1699,
      "lips": 1700,
      "self": 1701,
      "anc": 1702,
      "##iel": 1703,
      "cham": 1704,
      "chee": 1705,
      "##ils": 1706,
      "fav": 1707,
      "themselves": 1708,
      "grie": 1709,
      "consul": 1710,
      "##ude": 1711,
      "soldier": 1712,
      "george": 1713,
      "ali": 1714,
      "curse": 1715,
      "gain": 1716,
      "mal": 1717,
      "ped": 1718,
      "##ape": 1719,
      "throw": 1720,
      "##ertain": 1721,
      "##ated": 1722,
      "##isf": 1723,
      "##ready": 1724,
      "##ays": 1725,
      "issue": 1726,
      "##oof": 1727,
      "succ": 1728,
      "knock": 1729,
      "move": 1730,
      "proceed": 1731,
      "sworn": 1732,
      "loved": 1733,
      "##unk": 1734,
      "gro": 1735,
      "speech": 1736,
      "along": 1737,
      "already": 1738,
      "breast": 1739,
      "##ians": 1740,
      "writ": 1741,
      "consent": 1742,
      "join": 1743,
      "emb": 1744,
      "water": 1745,
      "tribunes": 1746,
      "sly": 1747,
      "wa": 1748,
      "##hood": 1749,
      "##hip": 1750,
      "##gn": 1751,
      "thom": 1752,
      "##ndon": 1753,
      "##anley": 1754,
      "stanley": 1755,
      "##used": 1756,
      "liber": 1757,
      "goes": 1758,
      "##vern": 1759,
      "loves": 1760,
      "bro": 1761,
      "brief": 1762,
      "chr": 1763,
      "marian": 1764,
      "hereford": 1765,
      "enc": 1766,
      "green": 1767,
      "hot": 1768,
      "spoke": 1769,
      "sons": 1770,
      "office": 1771,
      "begin": 1772,
      "curs": 1773,
      "feast": 1774,
      "soldiers": 1775,
      "deny": 1776,
      "##bray": 1777,
      "request": 1778,
      "##dden": 1779,
      "dangerous": 1780,
      "whilst": 1781,
      "battle": 1782,
      "quarrel": 1783,
      "morning": 1784,
      "satisf": 1785,
      "perdita": 1786,
      "fetch": 1787,
      "mowbray": 1788,
      "thomas": 1789,
      "ble": 1790,
      "baw": 1791,
      "est": 1792,
      "feel": 1793,
      "mortal": 1794,
      "pen": 1795,
      "sigh": 1796,
      "und": 1797,
      "viol": 1798,
      "wounds": 1799,
      "##ub": 1800,
      "##uous": 1801,
      "##gry": 1802,
      "##ouble": 1803,
      "often": 1804,
      "##rem": 1805,
      "fore": 1806,
      "frown": 1807,
      "kings": 1808,
      "got": 1809,
      "sum": 1810,
      "##umb": 1811,
      "##unt": 1812,
      "hadst": 1813,
      "foe": 1814,
      "vict": 1815,
      "respect": 1816,
      "visit": 1817,
      "officer": 1818,
      "mariana": 1819,
      "bow": 1820,
      "dest": 1821,
      "eat": 1822,
      "fill": 1823,
      "gall": 1824,
      "lament": 1825,
      "opp": 1826,
      "##ls": 1827,
      "##ix": 1828,
      "town": 1829,
      "ins": 1830,
      "##owers": 1831,
      "prin": 1832,
      "reb": 1833,
      "bride": 1834,
      "thence": 1835,
      "wash": 1836,
      "wars": 1837,
      "safe": 1838,
      "##els": 1839,
      "scar": 1840,
      "presence": 1841,
      "compl": 1842,
      "dread": 1843,
      "witness": 1844,
      "voice": 1845,
      "somet": 1846,
      "bitter": 1847,
      "action": 1848,
      "bab": 1849,
      "case": 1850,
      "ld": 1851,
      "lim": 1852,
      "lam": 1853,
      "pit": 1854,
      "rage": 1855,
      "vow": 1856,
      "wis": 1857,
      "wert": 1858,
      "##ued": 1859,
      "##iant": 1860,
      "##ding": 1861,
      "measure": 1862,
      "##ooth": 1863,
      "##ider": 1864,
      "def": 1865,
      "sudden": 1866,
      "london": 1867,
      "##augh": 1868,
      "prot": 1869,
      "##empt": 1870,
      "close": 1871,
      "wherein": 1872,
      "worship": 1873,
      "scorn": 1874,
      "beggar": 1875,
      "mighty": 1876,
      "throne": 1877,
      "small": 1878,
      "seems": 1879,
      "promise": 1880,
      "buy": 1881,
      "dishon": 1882,
      "possess": 1883,
      "ancient": 1884,
      "chamber": 1885,
      "success": 1886,
      "christ": 1887,
      "col": 1888,
      "der": 1889,
      "fli": 1890,
      "five": 1891,
      "hur": 1892,
      "lart": 1893,
      "pay": 1894,
      "pal": 1895,
      "##hem": 1896,
      "##hap": 1897,
      "##gr": 1898,
      "##af": 1899,
      "thither": 1900,
      "##ats": 1901,
      "forward": 1902,
      "##ures": 1903,
      "##ided": 1904,
      "fresh": 1905,
      "mast": 1906,
      "chur": 1907,
      "unw": 1908,
      "moon": 1909,
      "##erset": 1910,
      "##emn": 1911,
      "##ishop": 1912,
      "spo": 1913,
      "sac": 1914,
      "almost": 1915,
      "offer": 1916,
      "earl": 1917,
      "##ired": 1918,
      "perform": 1919,
      "prayers": 1920,
      "princely": 1921,
      "keeper": 1922,
      "appro": 1923,
      "valiant": 1924,
      "deeds": 1925,
      "somerset": 1926,
      "cross": 1927,
      "lartius": 1928,
      "base": 1929,
      "creat": 1930,
      "coward": 1931,
      "gh": 1932,
      "lab": 1933,
      "sland": 1934,
      "ur": 1935,
      "wak": 1936,
      "##uit": 1937,
      "##uff": 1938,
      "##ib": 1939,
      "##ges": 1940,
      "##ale": 1941,
      "##eem": 1942,
      "##cliff": 1943,
      "##ans": 1944,
      "##anch": 1945,
      "whence": 1946,
      "kingdom": 1947,
      "##ults": 1948,
      "##umph": 1949,
      "##antage": 1950,
      "faults": 1951,
      "##oney": 1952,
      "glad": 1953,
      "abh": 1954,
      "above": 1955,
      "flesh": 1956,
      "heads": 1957,
      "affection": 1958,
      "slave": 1959,
      "drink": 1960,
      "curt": 1961,
      "volsc": 1962,
      "triumph": 1963,
      "patient": 1964,
      "presently": 1965,
      "dark": 1966,
      "pretty": 1967,
      "ratcliff": 1968,
      "proclaim": 1969,
      "barn": 1970,
      "certain": 1971,
      "eas": 1972,
      "kins": 1973,
      "lar": 1974,
      "lack": 1975,
      "match": 1976,
      "sus": 1977,
      "sli": 1978,
      "tut": 1979,
      "tear": 1980,
      "##over": 1981,
      "##ift": 1982,
      "##he": 1983,
      "##een": 1984,
      "##ether": 1985,
      "##mit": 1986,
      "whether": 1987,
      "##imes": 1988,
      "##lic": 1989,
      "chang": 1990,
      "least": 1991,
      "among": 1992,
      "mayor": 1993,
      "alack": 1994,
      "contr": 1995,
      "teach": 1996,
      "depart": 1997,
      "condemn": 1998,
      "subjects": 1999,
      "towards": 2000,
      "damn": 2001,
      "forbid": 2002,
      "usurp": 2003,
      "bawd": 2004,
      "church": 2005,
      "bir": 2006,
      "fond": 2007,
      "hide": 2008,
      "mid": 2009,
      "mild": 2010,
      "occ": 2011,
      "sim": 2012,
      "tor": 2013,
      "tail": 2014,
      "ut": 2015,
      "wound": 2016,
      "walk": 2017,
      "##hile": 2018,
      "##ef": 2019,
      "##day": 2020,
      "##vest": 2021,
      "##bb": 2022,
      "##inger": 2023,
      "beast": 2024,
      "inj": 2025,
      "hap": 2026,
      "forsw": 2027,
      "##ural": 2028,
      "##ool": 2029,
      "star": 2030,
      "##als": 2031,
      "living": 2032,
      "doing": 2033,
      "dem": 2034,
      "defend": 2035,
      "anon": 2036,
      "##race": 2037,
      "govern": 2038,
      "trump": 2039,
      "neck": 2040,
      "chance": 2041,
      "bohem": 2042,
      "##feit": 2043,
      "wouldst": 2044,
      "arr": 2045,
      "ariel": 2046,
      "##ept": 2047,
      "hearing": 2048,
      "awhile": 2049,
      "##ainted": 2050,
      "slaughter": 2051,
      "drum": 2052,
      "obey": 2053,
      "weeping": 2054,
      "dispatch": 2055,
      "virtuous": 2056,
      "deserved": 2057,
      "execution": 2058,
      "virgilia": 2059,
      "ghost": 2060,
      "curtis": 2061,
      "fam": 2062,
      "list": 2063,
      "pain": 2064,
      "rid": 2065,
      "sch": 2066,
      "wench": 2067,
      "year": 2068,
      "##oint": 2069,
      "##ying": 2070,
      "##full": 2071,
      "##ines": 2072,
      "##onus": 2073,
      "whither": 2074,
      "wild": 2075,
      "##str": 2076,
      "##stand": 2077,
      "inno": 2078,
      "form": 2079,
      "stor": 2080,
      "stop": 2081,
      "ref": 2082,
      "ourselves": 2083,
      "goodly": 2084,
      "knee": 2085,
      "letters": 2086,
      "enj": 2087,
      "blows": 2088,
      "wherefore": 2089,
      "worst": 2090,
      "##igonus": 2091,
      "##ries": 2092,
      "offence": 2093,
      "##perate": 2094,
      "greater": 2095,
      "commend": 2096,
      "besides": 2097,
      "slew": 2098,
      "treason": 2099,
      "behind": 2100,
      "breathe": 2101,
      "lawful": 2102,
      "##ledge": 2103,
      "antigonus": 2104,
      "instru": 2105,
      "##ourable": 2106,
      "quickly": 2107,
      "extrem": 2108,
      "guilty": 2109,
      "ladies": 2110,
      "favour": 2111,
      "slander": 2112,
      "birth": 2113,
      "bohemia": 2114,
      "di": 2115,
      "dry": 2116,
      "ef": 2117,
      "fine": 2118,
      "gir": 2119,
      "ign": 2120,
      "med": 2121,
      "ran": 2122,
      "rut": 2123,
      "rough": 2124,
      "##ror": 2125,
      "##right": 2126,
      "##her": 2127,
      "##gg": 2128,
      "##be": 2129,
      "##ern": 2130,
      "##eness": 2131,
      "##ared": 2132,
      "##llow": 2133,
      "##isure": 2134,
      "##ann": 2135,
      "offend": 2136,
      "##omes": 2137,
      "##eds": 2138,
      "held": 2139,
      "shr": 2140,
      "shed": 2141,
      "shows": 2142,
      "note": 2143,
      "stre": 2144,
      "sole": 2145,
      "##amps": 2146,
      "seal": 2147,
      "angry": 2148,
      "reign": 2149,
      "neigh": 2150,
      "kneel": 2151,
      "leisure": 2152,
      "unk": 2153,
      "##ustom": 2154,
      "##iled": 2155,
      "conce": 2156,
      "##astard": 2157,
      "blow": 2158,
      "##oler": 2159,
      "exeter": 2160,
      "disg": 2161,
      "fled": 2162,
      "quiet": 2163,
      "add": 2164,
      "laid": 2165,
      "isabel": 2166,
      "longer": 2167,
      "needs": 2168,
      "##force": 2169,
      "truly": 2170,
      "banishment": 2171,
      "golden": 2172,
      "pedant": 2173,
      "derby": 2174,
      "masters": 2175,
      "##fully": 2176,
      "rutland": 2177,
      "av": 2178,
      "fat": 2179,
      "fee": 2180,
      "hat": 2181,
      "mut": 2182,
      "pad": 2183,
      "ren": 2184,
      "six": 2185,
      "won": 2186,
      "##oice": 2187,
      "##ual": 2188,
      "##pl": 2189,
      "##ked": 2190,
      "oft": 2191,
      "white": 2192,
      "bel": 2193,
      "bell": 2194,
      "shad": 2195,
      "stain": 2196,
      "aside": 2197,
      "##ames": 2198,
      "##amed": 2199,
      "doom": 2200,
      "##uel": 2201,
      "choose": 2202,
      "##ument": 2203,
      "consc": 2204,
      "amen": 2205,
      "letter": 2206,
      "proph": 2207,
      "##aste": 2208,
      "speaks": 2209,
      "##agen": 2210,
      "##osition": 2211,
      "contin": 2212,
      "remain": 2213,
      "purs": 2214,
      "sense": 2215,
      "banished": 2216,
      "english": 2217,
      "##rupt": 2218,
      "prisoner": 2219,
      "until": 2220,
      "##ourage": 2221,
      "plantagen": 2222,
      "piece": 2223,
      "clouds": 2224,
      "liberty": 2225,
      "encoun": 2226,
      "ignor": 2227,
      "neighb": 2228,
      "padua": 2229,
      "big": 2230,
      "bishop": 2231,
      "gard": 2232,
      "hund": 2233,
      "lust": 2234,
      "odd": 2235,
      "ph": 2236,
      "page": 2237,
      "rise": 2238,
      "sort": 2239,
      "vain": 2240,
      "##od": 2241,
      "##ever": 2242,
      "##zen": 2243,
      "##ators": 2244,
      "##ony": 2245,
      "##ingly": 2246,
      "noise": 2247,
      "bend": 2248,
      "##ires": 2249,
      "stood": 2250,
      "##ads": 2251,
      "##ardine": 2252,
      "lived": 2253,
      "dog": 2254,
      "seat": 2255,
      "seven": 2256,
      "##like": 2257,
      "lod": 2258,
      "loath": 2259,
      "broke": 2260,
      "kne": 2261,
      "unf": 2262,
      "##iles": 2263,
      "conqu": 2264,
      "swift": 2265,
      "warm": 2266,
      "hop": 2267,
      "glass": 2268,
      "secret": 2269,
      "##elve": 2270,
      "bears": 2271,
      "womb": 2272,
      "drown": 2273,
      "drunk": 2274,
      "patr": 2275,
      "obed": 2276,
      "forgot": 2277,
      "instr": 2278,
      "temp": 2279,
      "blessed": 2280,
      "bones": 2281,
      "despair": 2282,
      "victory": 2283,
      "dishonour": 2284,
      "labour": 2285,
      "barnardine": 2286,
      "enjoy": 2287,
      "conscience": 2288,
      "plantagenet": 2289,
      "hundred": 2290,
      "bastard": 2291,
      "dors": 2292,
      "ga": 2293,
      "kept": 2294,
      "low": 2295,
      "laugh": 2296,
      "mant": 2297,
      "money": 2298,
      "nap": 2299,
      "rag": 2300,
      "sal": 2301,
      "sour": 2302,
      "tar": 2303,
      "west": 2304,
      "xi": 2305,
      "##ler": 2306,
      "##av": 2307,
      "##bit": 2308,
      "threat": 2309,
      "##thor": 2310,
      "##ances": 2311,
      "##omp": 2312,
      "##vel": 2313,
      "##vey": 2314,
      "shore": 2315,
      "shake": 2316,
      "weary": 2317,
      "step": 2318,
      "steel": 2319,
      "yourselves": 2320,
      "pride": 2321,
      "##asion": 2322,
      "##cked": 2323,
      "sever": 2324,
      "##lind": 2325,
      "herself": 2326,
      "##ieu": 2327,
      "##ular": 2328,
      "bod": 2329,
      "##ume": 2330,
      "mod": 2331,
      "env": 2332,
      "blush": 2333,
      "##ived": 2334,
      "knowledge": 2335,
      "glory": 2336,
      "twice": 2337,
      "twixt": 2338,
      "saf": 2339,
      "dism": 2340,
      "desperate": 2341,
      "adieu": 2342,
      "struck": 2343,
      "counter": 2344,
      "precious": 2345,
      "imag": 2346,
      "lordship": 2347,
      "author": 2348,
      "guard": 2349,
      "guess": 2350,
      "bushy": 2351,
      "woes": 2352,
      "lands": 2353,
      "few": 2354,
      "intend": 2355,
      "condition": 2356,
      "entertain": 2357,
      "watchman": 2358,
      "venge": 2359,
      "alive": 2360,
      "wisdom": 2361,
      "kinsman": 2362,
      "effect": 2363,
      "encounter": 2364,
      "knees": 2365,
      "dorset": 2366,
      "bag": 2367,
      "died": 2368,
      "deter": 2369,
      "eld": 2370,
      "fought": 2371,
      "samps": 2372,
      "tent": 2373,
      "##iful": 2374,
      "##so": 2375,
      "##sp": 2376,
      "##ners": 2377,
      "##gment": 2378,
      "##done": 2379,
      "##with": 2380,
      "health": 2381,
      "hair": 2382,
      "force": 2383,
      "##lect": 2384,
      "##ities": 2385,
      "stone": 2386,
      "stars": 2387,
      "steal": 2388,
      "butch": 2389,
      "##estion": 2390,
      "del": 2391,
      "deb": 2392,
      "going": 2393,
      "##ility": 2394,
      "thereof": 2395,
      "moved": 2396,
      "manner": 2397,
      "##aked": 2398,
      "arg": 2399,
      "grand": 2400,
      "abro": 2401,
      "honourable": 2402,
      "flowers": 2403,
      "brothers": 2404,
      "quoth": 2405,
      "calls": 2406,
      "honours": 2407,
      "##ations": 2408,
      "capit": 2409,
      "remed": 2410,
      "deadly": 2411,
      "army": 2412,
      "repent": 2413,
      "consider": 2414,
      "fellows": 2415,
      "guest": 2416,
      "braken": 2417,
      "understand": 2418,
      "becomes": 2419,
      "foolish": 2420,
      "persu": 2421,
      "dreams": 2422,
      "promised": 2423,
      "judge": 2424,
      "acqu": 2425,
      "prepare": 2426,
      "wretched": 2427,
      "cheeks": 2428,
      "gainst": 2429,
      "scarce": 2430,
      "school": 2431,
      "##ointed": 2432,
      "determ": 2433,
      "sampson": 2434,
      "brakenbury": 2435,
      "aid": 2436,
      "blind": 2437,
      "cred": 2438,
      "cried": 2439,
      "cup": 2440,
      "custom": 2441,
      "courage": 2442,
      "din": 2443,
      "ir": 2444,
      "mour": 2445,
      "pun": 2446,
      "rot": 2447,
      "rock": 2448,
      "vile": 2449,
      "wail": 2450,
      "##let": 2451,
      "##ips": 2452,
      "##gory": 2453,
      "##ease": 2454,
      "##bly": 2455,
      "##pir": 2456,
      "##orious": 2457,
      "##esy": 2458,
      "##read": 2459,
      "##stant": 2460,
      "incl": 2461,
      "##irc": 2462,
      "##itors": 2463,
      "stab": 2464,
      "priest": 2465,
      "##ident": 2466,
      "liest": 2467,
      "door": 2468,
      "dece": 2469,
      "froth": 2470,
      "making": 2471,
      "ours": 2472,
      "try": 2473,
      "trick": 2474,
      "unb": 2475,
      "unp": 2476,
      "dull": 2477,
      "amaz": 2478,
      "arch": 2479,
      "grown": 2480,
      "greet": 2481,
      "gregory": 2482,
      "spent": 2483,
      "##rift": 2484,
      "flower": 2485,
      "early": 2486,
      "cruel": 2487,
      "commit": 2488,
      "foes": 2489,
      "cover": 2490,
      "imm": 2491,
      "bids": 2492,
      "account": 2493,
      "kindness": 2494,
      "kindred": 2495,
      "smile": 2496,
      "charity": 2497,
      "benef": 2498,
      "impr": 2499,
      "overdone": 2500,
      "gives": 2501,
      "humble": 2502,
      "valour": 2503,
      "month": 2504,
      "musician": 2505,
      "whiles": 2506,
      "tyrrel": 2507,
      "summer": 2508,
      "demand": 2509,
      "girl": 2510,
      "renown": 2511,
      "boot": 2512,
      "cre": 2513,
      "circ": 2514,
      "dance": 2515,
      "dwell": 2516,
      "faint": 2517,
      "idle": 2518,
      "pack": 2519,
      "pier": 2520,
      "vie": 2521,
      "wre": 2522,
      "went": 2523,
      "##ught": 2524,
      "##under": 2525,
      "##ife": 2526,
      "##iance": 2527,
      "##vail": 2528,
      "##mble": 2529,
      "##ways": 2530,
      "thro": 2531,
      "##ety": 2532,
      "shar": 2533,
      "shrew": 2534,
      "##ited": 2535,
      "proof": 2536,
      "##alm": 2537,
      "##asc": 2538,
      "##ask": 2539,
      "##ased": 2540,
      "deg": 2541,
      "##ract": 2542,
      "bright": 2543,
      "lend": 2544,
      "uns": 2545,
      "therein": 2546,
      "marsh": 2547,
      "concl": 2548,
      "convey": 2549,
      "envy": 2550,
      "blame": 2551,
      "blunt": 2552,
      "clock": 2553,
      "plot": 2554,
      "exce": 2555,
      "honesty": 2556,
      "thinks": 2557,
      "betw": 2558,
      "county": 2559,
      "party": 2560,
      "meaning": 2561,
      "others": 2562,
      "harry": 2563,
      "tyrant": 2564,
      "trial": 2565,
      "carry": 2566,
      "miser": 2567,
      "assist": 2568,
      "crave": 2569,
      "##ify": 2570,
      "winter": 2571,
      "silence": 2572,
      "minister": 2573,
      "divine": 2574,
      "profess": 2575,
      "judgment": 2576,
      "castle": 2577,
      "walls": 2578,
      "private": 2579,
      "malice": 2580,
      "satisfied": 2581,
      "creature": 2582,
      "volsces": 2583,
      "utter": 2584,
      "vengeance": 2585,
      "abroad": 2586,
      "view": 2587,
      "ba": 2588,
      "bite": 2589,
      "bird": 2590,
      "fain": 2591,
      "feed": 2592,
      "finger": 2593,
      "gown": 2594,
      "hol": 2595,
      "mam": 2596,
      "mil": 2597,
      "nine": 2598,
      "ow": 2599,
      "pil": 2600,
      "ros": 2601,
      "sn": 2602,
      "sy": 2603,
      "vice": 2604,
      "vouch": 2605,
      "wag": 2606,
      "##ict": 2607,
      "##night": 2608,
      "##ging": 2609,
      "##tion": 2610,
      "##ends": 2611,
      "##cuse": 2612,
      "##eria": 2613,
      "##orous": 2614,
      "##ona": 2615,
      "##ones": 2616,
      "bef": 2617,
      "former": 2618,
      "meat": 2619,
      "meant": 2620,
      "wither": 2621,
      "##ites": 2622,
      "ste": 2623,
      "stoop": 2624,
      "##ioli": 2625,
      "##ords": 2626,
      "deal": 2627,
      "fruit": 2628,
      "received": 2629,
      "##rac": 2630,
      "allow": 2631,
      "##ander": 2632,
      "troth": 2633,
      "trouble": 2634,
      "necess": 2635,
      "brow": 2636,
      "unl": 2637,
      "##unning": 2638,
      "gross": 2639,
      "mayst": 2640,
      "firm": 2641,
      "sport": 2642,
      "spake": 2643,
      "sail": 2644,
      "always": 2645,
      "excuse": 2646,
      "gentlew": 2647,
      "corn": 2648,
      "corse": 2649,
      "corioli": 2650,
      "awake": 2651,
      "quite": 2652,
      "question": 2653,
      "prevent": 2654,
      "prevail": 2655,
      "captain": 2656,
      "mistake": 2657,
      "tongues": 2658,
      "tread": 2659,
      "traitors": 2660,
      "counten": 2661,
      "belike": 2662,
      "maids": 2663,
      "drawn": 2664,
      "humour": 2665,
      "deputy": 2666,
      "valeria": 2667,
      "sentence": 2668,
      "swords": 2669,
      "deserve": 2670,
      "caius": 2671,
      "##aze": 2672,
      "bona": 2673,
      "despite": 2674,
      "taken": 2675,
      "drop": 2676,
      "direct": 2677,
      "spring": 2678,
      "tyrann": 2679,
      "evil": 2680,
      "embrace": 2681,
      "sometime": 2682,
      "sacred": 2683,
      "abhors": 2684,
      "easy": 2685,
      "changed": 2686,
      "simple": 2687,
      "tailor": 2688,
      "mantua": 2689,
      "marshal": 2690,
      "betwixt": 2691,
      "ach": 2692,
      "aim": 2693,
      "cure": 2694,
      "dur": 2695,
      "due": 2696,
      "dust": 2697,
      "ease": 2698,
      "fre": 2699,
      "hid": 2700,
      "length": 2701,
      "pains": 2702,
      "pub": 2703,
      "round": 2704,
      "rude": 2705,
      "sor": 2706,
      "sits": 2707,
      "yonder": 2708,
      "##oll": 2709,
      "##dra": 2710,
      "##pic": 2711,
      "##wh": 2712,
      "thunder": 2713,
      "##though": 2714,
      "##ane": 2715,
      "nose": 2716,
      "##vell": 2717,
      "wicked": 2718,
      "shut": 2719,
      "ship": 2720,
      "fors": 2721,
      "press": 2722,
      "##idings": 2723,
      "##amp": 2724,
      "##allow": 2725,
      "deceived": 2726,
      "fright": 2727,
      "anger": 2728,
      "receive": 2729,
      "suff": 2730,
      "neg": 2731,
      "brows": 2732,
      "choice": 2733,
      "knave": 2734,
      "leaves": 2735,
      "sheep": 2736,
      "prop": 2737,
      "proper": 2738,
      "blest": 2739,
      "##aper": 2740,
      "whereof": 2741,
      "plague": 2742,
      "although": 2743,
      "perceive": 2744,
      "percy": 2745,
      "quit": 2746,
      "scr": 2747,
      "plead": 2748,
      "##alty": 2749,
      "resign": 2750,
      "jove": 2751,
      "subst": 2752,
      "senate": 2753,
      "undert": 2754,
      "import": 2755,
      "roar": 2756,
      "gift": 2757,
      "wrongs": 2758,
      "##airs": 2759,
      "reasons": 2760,
      "discover": 2761,
      "tempt": 2762,
      "buried": 2763,
      "silver": 2764,
      "fiery": 2765,
      "##ealous": 2766,
      "guilt": 2767,
      "##ursed": 2768,
      "verona": 2769,
      "broken": 2770,
      "cursed": 2771,
      "approach": 2772,
      "occasion": 2773,
      "innocent": 2774,
      "avo": 2775,
      "fatal": 2776,
      "conquer": 2777,
      "safety": 2778,
      "remedy": 2779,
      "punish": 2780,
      "imprison": 2781,
      "abhorson": 2782,
      "catch": 2783,
      "da": 2784,
      "dor": 2785,
      "double": 2786,
      "ele": 2787,
      "eag": 2788,
      "fath": 2789,
      "fury": 2790,
      "hie": 2791,
      "hors": 2792,
      "jealous": 2793,
      "lang": 2794,
      "number": 2795,
      "orac": 2796,
      "pin": 2797,
      "ted": 2798,
      "taste": 2799,
      "tidings": 2800,
      "wings": 2801,
      "##oard": 2802,
      "##ope": 2803,
      "##ring": 2804,
      "##sic": 2805,
      "##act": 2806,
      "##eld": 2807,
      "##cing": 2808,
      "##mn": 2809,
      "##mity": 2810,
      "thir": 2811,
      "thri": 2812,
      "##ining": 2813,
      "##inous": 2814,
      "##ating": 2815,
      "##arch": 2816,
      "##onoun": 2817,
      "##ank": 2818,
      "belo": 2819,
      "infect": 2820,
      "inform": 2821,
      "##change": 2822,
      "hail": 2823,
      "withdra": 2824,
      "weeds": 2825,
      "sto": 2826,
      "stuff": 2827,
      "stones": 2828,
      "pronoun": 2829,
      "dec": 2830,
      "seize": 2831,
      "loy": 2832,
      "##ourish": 2833,
      "troub": 2834,
      "boat": 2835,
      "##illius": 2836,
      "##ctise": 2837,
      "mops": 2838,
      "##ement": 2839,
      "cloth": 2840,
      "claim": 2841,
      "##eeth": 2842,
      "used": 2843,
      "host": 2844,
      "hollow": 2845,
      "seeing": 2846,
      "twelve": 2847,
      "heav": 2848,
      "design": 2849,
      "prayer": 2850,
      "adm": 2851,
      "##aughters": 2852,
      "wrath": 2853,
      "write": 2854,
      "cock": 2855,
      "contract": 2856,
      "preser": 2857,
      "keeps": 2858,
      "thrust": 2859,
      "fares": 2860,
      "treach": 2861,
      "apoll": 2862,
      "empt": 2863,
      "senators": 2864,
      "seeming": 2865,
      "cares": 2866,
      "deposed": 2867,
      "delight": 2868,
      "wanton": 2869,
      "supper": 2870,
      "condu": 2871,
      "crack": 2872,
      "bark": 2873,
      "##hysic": 2874,
      "resolve": 2875,
      "resolved": 2876,
      "accept": 2877,
      "clear": 2878,
      "pleased": 2879,
      "practise": 2880,
      "absence": 2881,
      "cheek": 2882,
      "undone": 2883,
      "violent": 2884,
      "destro": 2885,
      "princes": 2886,
      "trumpets": 2887,
      "storm": 2888,
      "belly": 2889,
      "ignorant": 2890,
      "neighbour": 2891,
      "garden": 2892,
      "patric": 2893,
      "authority": 2894,
      "butcher": 2895,
      "capitol": 2896,
      "rotten": 2897,
      "mamillius": 2898,
      "gentlewoman": 2899,
      "sorry": 2900,
      "langu": 2901,
      "oracle": 2902,
      "tedious": 2903,
      "mopsa": 2904,
      "aed": 2905,
      "ball": 2906,
      "cell": 2907,
      "crow": 2908,
      "cries": 2909,
      "cunning": 2910,
      "det": 2911,
      "equ": 2912,
      "fish": 2913,
      "hit": 2914,
      "ire": 2915,
      "mere": 2916,
      "moun": 2917,
      "names": 2918,
      "owe": 2919,
      "pis": 2920,
      "physic": 2921,
      "rash": 2922,
      "ross": 2923,
      "root": 2924,
      "rasc": 2925,
      "sens": 2926,
      "tune": 2927,
      "teeth": 2928,
      "vantage": 2929,
      "wood": 2930,
      "wine": 2931,
      "wol": 2932,
      "wond": 2933,
      "wot": 2934,
      "wont": 2935,
      "##oc": 2936,
      "##ipp": 2937,
      "##iff": 2938,
      "##hold": 2939,
      "##nat": 2940,
      "##gue": 2941,
      "##ault": 2942,
      "##ek": 2943,
      "##eous": 2944,
      "##dain": 2945,
      "##cas": 2946,
      "##vish": 2947,
      "##more": 2948,
      "##pet": 2949,
      "thurs": 2950,
      "##eret": 2951,
      "##ening": 2952,
      "##ises": 2953,
      "wives": 2954,
      "##rey": 2955,
      "bew": 2956,
      "##char": 2957,
      "##chance": 2958,
      "##utes": 2959,
      "shap": 2960,
      "##leep": 2961,
      "##ldom": 2962,
      "mend": 2963,
      "##iment": 2964,
      "weap": 2965,
      "weigh": 2966,
      "stat": 2967,
      "steed": 2968,
      "stock": 2969,
      "##aded": 2970,
      "prick": 2971,
      "asleep": 2972,
      "##ards": 2973,
      "ones": 2974,
      "dew": 2975,
      "reward": 2976,
      "revol": 2977,
      "brain": 2978,
      "brook": 2979,
      "chide": 2980,
      "chief": 2981,
      "unhap": 2982,
      "##uments": 2983,
      "faced": 2984,
      "conj": 2985,
      "motion": 2986,
      "amb": 2987,
      "whole": 2988,
      "shouldst": 2989,
      "spare": 2990,
      "outward": 2991,
      "looking": 2992,
      "corrupt": 2993,
      "earn": 2994,
      "petition": 2995,
      "breed": 2996,
      "##ontent": 2997,
      "perish": 2998,
      "perhap": 2999,
      "quench": 3000,
      "prey": 3001,
      "pair": 3002,
      "pawn": 3003,
      "begins": 3004,
      "repair": 3005,
      "thrive": 3006,
      "conspir": 3007,
      "crowns": 3008,
      "##ission": 3009,
      "aught": 3010,
      "accuse": 3011,
      "follows": 3012,
      "farther": 3013,
      "appar": 3014,
      "woful": 3015,
      "passing": 3016,
      "turns": 3017,
      "devise": 3018,
      "followers": 3019,
      "disposition": 3020,
      "fools": 3021,
      "advise": 3022,
      "humbly": 3023,
      "hanging": 3024,
      "darest": 3025,
      "borne": 3026,
      "opin": 3027,
      "spirits": 3028,
      "affairs": 3029,
      "temper": 3030,
      "burth": 3031,
      "methought": 3032,
      "ruin": 3033,
      "possible": 3034,
      "nobles": 3035,
      "forbear": 3036,
      "prepared": 3037,
      "garments": 3038,
      "vex": 3039,
      "express": 3040,
      "sighs": 3041,
      "dreadful": 3042,
      "sometimes": 3043,
      "babe": 3044,
      "lamb": 3045,
      "protect": 3046,
      "christian": 3047,
      "colour": 3048,
      "spoken": 3049,
      "damned": 3050,
      "instruct": 3051,
      "unkn": 3052,
      "envious": 3053,
      "delay": 3054,
      "dinner": 3055,
      "stabb": 3056,
      "benefit": 3057,
      "throat": 3058,
      "excell": 3059,
      "countenance": 3060,
      "beloved": 3061,
      "withdraw": 3062,
      "apollo": 3063,
      "conduct": 3064,
      "pisa": 3065,
      "thursday": 3066,
      "unhapp": 3067,
      "perhaps": 3068,
      "ber": 3069,
      "bas": 3070,
      "band": 3071,
      "bare": 3072,
      "balth": 3073,
      "cens": 3074,
      "daughters": 3075,
      "ely": 3076,
      "fan": 3077,
      "fash": 3078,
      "gage": 3079,
      "jack": 3080,
      "led": 3081,
      "line": 3082,
      "miss": 3083,
      "port": 3084,
      "pite": 3085,
      "paper": 3086,
      "san": 3087,
      "south": 3088,
      "sooth": 3089,
      "tap": 3090,
      "tort": 3091,
      "van": 3092,
      "wal": 3093,
      "wander": 3094,
      "##ives": 3095,
      "##ser": 3096,
      "##aff": 3097,
      "##yond": 3098,
      "##que": 3099,
      "##ene": 3100,
      "##ences": 3101,
      "top": 3102,
      "##ising": 3103,
      "beyond": 3104,
      "##utation": 3105,
      "##lex": 3106,
      "##erem": 3107,
      "##itude": 3108,
      "##oots": 3109,
      "weight": 3110,
      "stu": 3111,
      "##enture": 3112,
      "##usion": 3113,
      "prize": 3114,
      "lip": 3115,
      "##asar": 3116,
      "seest": 3117,
      "seas": 3118,
      "kingly": 3119,
      "sup": 3120,
      "goodness": 3121,
      "comb": 3122,
      "lean": 3123,
      "legs": 3124,
      "unnat": 3125,
      "##ilt": 3126,
      "##ouses": 3127,
      "##ants": 3128,
      "hereaf": 3129,
      "enforce": 3130,
      "prod": 3131,
      "spec": 3132,
      "spend": 3133,
      "pla": 3134,
      "exile": 3135,
      "diss": 3136,
      "peril": 3137,
      "perfect": 3138,
      "perpet": 3139,
      "fairly": 3140,
      "standing": 3141,
      "parts": 3142,
      "partic": 3143,
      "bearing": 3144,
      "affect": 3145,
      "##swain": 3146,
      "accus": 3147,
      "access": 3148,
      "purch": 3149,
      "curr": 3150,
      "curst": 3151,
      "confer": 3152,
      "tremb": 3153,
      "beheld": 3154,
      "empl": 3155,
      "happiness": 3156,
      "room": 3157,
      "forgive": 3158,
      "advantage": 3159,
      "courtesy": 3160,
      "deserves": 3161,
      "remembr": 3162,
      "dares": 3163,
      "commanded": 3164,
      "denied": 3165,
      "##imely": 3166,
      "untimely": 3167,
      "##iety": 3168,
      "calm": 3169,
      "calib": 3170,
      "raven": 3171,
      "wedding": 3172,
      "pleasant": 3173,
      "groan": 3174,
      "penit": 3175,
      "pitch": 3176,
      "protest": 3177,
      "flies": 3178,
      "flight": 3179,
      "hurt": 3180,
      "palace": 3181,
      "suspic": 3182,
      "contrary": 3183,
      "forsworn": 3184,
      "solemn": 3185,
      "shadow": 3186,
      "continue": 3187,
      "obedience": 3188,
      "several": 3189,
      "circum": 3190,
      "sharp": 3191,
      "miserable": 3192,
      "public": 3193,
      "horses": 3194,
      "boatswain": 3195,
      "empty": 3196,
      "destroy": 3197,
      "##ereto": 3198,
      "opinion": 3199,
      "burthen": 3200,
      "balthasar": 3201,
      "piteous": 3202,
      "sanct": 3203,
      "hereafter": 3204,
      "employ": 3205,
      "bud": 3206,
      "cease": 3207,
      "dig": 3208,
      "dag": 3209,
      "dies": 3210,
      "dign": 3211,
      "east": 3212,
      "ends": 3213,
      "fame": 3214,
      "ferd": 3215,
      "gate": 3216,
      "houses": 3217,
      "jour": 3218,
      "jew": 3219,
      "kin": 3220,
      "mill": 3221,
      "maint": 3222,
      "naked": 3223,
      "painted": 3224,
      "rt": 3225,
      "ring": 3226,
      "rose": 3227,
      "rush": 3228,
      "sink": 3229,
      "song": 3230,
      "scept": 3231,
      "tide": 3232,
      "table": 3233,
      "wing": 3234,
      "##ray": 3235,
      "##iam": 3236,
      "##go": 3237,
      "##ker": 3238,
      "##erous": 3239,
      "##inand": 3240,
      "##ater": 3241,
      "##enn": 3242,
      "##enced": 3243,
      "##ency": 3244,
      "tomb": 3245,
      "##isbury": 3246,
      "##omenes": 3247,
      "wits": 3248,
      "##reh": 3249,
      "##rees": 3250,
      "heed": 3251,
      "##cend": 3252,
      "##sequ": 3253,
      "##uted": 3254,
      "##urance": 3255,
      "##itch": 3256,
      "wealth": 3257,
      "story": 3258,
      "its": 3259,
      "##ades": 3260,
      "##ested": 3261,
      "french": 3262,
      "sep": 3263,
      "repe": 3264,
      "rever": 3265,
      "herd": 3266,
      "suck": 3267,
      "choler": 3268,
      "bot": 3269,
      "comest": 3270,
      "fail": 3271,
      "faces": 3272,
      "conc": 3273,
      "duked": 3274,
      "##icious": 3275,
      "swallow": 3276,
      "##oles": 3277,
      "theirs": 3278,
      "clo": 3279,
      "grows": 3280,
      "worn": 3281,
      "spur": 3282,
      "twill": 3283,
      "##arel": 3284,
      "alter": 3285,
      "hearted": 3286,
      "expect": 3287,
      "bred": 3288,
      "advers": 3289,
      "called": 3290,
      "##outs": 3291,
      "ways": 3292,
      "remains": 3293,
      "slow": 3294,
      "services": 3295,
      "camest": 3296,
      "compass": 3297,
      "accord": 3298,
      "folly": 3299,
      "needful": 3300,
      "endure": 3301,
      "apparel": 3302,
      "fortunes": 3303,
      "joys": 3304,
      "joyful": 3305,
      "natural": 3306,
      "rob": 3307,
      "misery": 3308,
      "devot": 3309,
      "##verend": 3310,
      "maiden": 3311,
      "##ney": 3312,
      "attempt": 3313,
      "assurance": 3314,
      "market": 3315,
      "intent": 3316,
      "discontent": 3317,
      "affli": 3318,
      "titus": 3319,
      "waters": 3320,
      "##eys": 3321,
      "rule": 3322,
      "hunts": 3323,
      "redeem": 3324,
      "fourth": 3325,
      "leads": 3326,
      "cleomenes": 3327,
      "terror": 3328,
      "shortly": 3329,
      "praise": 3330,
      "drops": 3331,
      "griev": 3332,
      "curses": 3333,
      "bleed": 3334,
      "oppos": 3335,
      "princess": 3336,
      "rebell": 3337,
      "complain": 3338,
      "colours": 3339,
      "large": 3340,
      "torment": 3341,
      "wounded": 3342,
      "haply": 3343,
      "government": 3344,
      "drums": 3345,
      "hatred": 3346,
      "hopes": 3347,
      "instrument": 3348,
      "salisbury": 3349,
      "bodies": 3350,
      "counterfeit": 3351,
      "bagot": 3352,
      "credit": 3353,
      "mourn": 3354,
      "renowned": 3355,
      "wreck": 3356,
      "durst": 3357,
      "undertake": 3358,
      "language": 3359,
      "unknown": 3360,
      "excellent": 3361,
      "study": 3362,
      "unnatural": 3363,
      "remembrance": 3364,
      "caliban": 3365,
      "suspicion": 3366,
      "ferdinand": 3367,
      "dukedom": 3368,
      "able": 3369,
      "bury": 3370,
      "dow": 3371,
      "dying": 3372,
      "fle": 3373,
      "loud": 3374,
      "mile": 3375,
      "nought": 3376,
      "purse": 3377,
      "powers": 3378,
      "rain": 3379,
      "sore": 3380,
      "sins": 3381,
      "var": 3382,
      "##leness": 3383,
      "##oes": 3384,
      "##uing": 3385,
      "##uary": 3386,
      "##rous": 3387,
      "##iate": 3388,
      "##inds": 3389,
      "##sce": 3390,
      "##ald": 3391,
      "##tled": 3392,
      "##den": 3393,
      "##yard": 3394,
      "##cise": 3395,
      "##pr": 3396,
      "##wise": 3397,
      "thief": 3398,
      "##ination": 3399,
      "##ores": 3400,
      "##orth": 3401,
      "##atic": 3402,
      "##aries": 3403,
      "##isper": 3404,
      "##think": 3405,
      "##anced": 3406,
      "whisper": 3407,
      "wil": 3408,
      "winds": 3409,
      "##rease": 3410,
      "inqu": 3411,
      "haz": 3412,
      "shun": 3413,
      "shape": 3414,
      "forced": 3415,
      "isle": 3416,
      "island": 3417,
      "melt": 3418,
      "wept": 3419,
      "store": 3420,
      "stol": 3421,
      "strew": 3422,
      "stamp": 3423,
      "##alf": 3424,
      "##idence": 3425,
      "lift": 3426,
      "frame": 3427,
      "sends": 3428,
      "willough": 3429,
      "rel": 3430,
      "realm": 3431,
      "reverend": 3432,
      "##very": 3433,
      "##tern": 3434,
      "trade": 3435,
      "brings": 3436,
      "branch": 3437,
      "##ellig": 3438,
      "chair": 3439,
      "bond": 3440,
      "boar": 3441,
      "knight": 3442,
      "knife": 3443,
      "##ills": 3444,
      "manners": 3445,
      "##arts": 3446,
      "enmity": 3447,
      "block": 3448,
      "sway": 3449,
      "swell": 3450,
      "##olute": 3451,
      "clam": 3452,
      "##ots": 3453,
      "muster": 3454,
      "glorious": 3455,
      "spar": 3456,
      "spite": 3457,
      "sav": 3458,
      "##rian": 3459,
      "disse": 3460,
      "disdain": 3461,
      "serves": 3462,
      "##ages": 3463,
      "desires": 3464,
      "perj": 3465,
      "qual": 3466,
      "adver": 3467,
      "##urnish": 3468,
      "scope": 3469,
      "scene": 3470,
      "pref": 3471,
      "contempt": 3472,
      "##ression": 3473,
      "begun": 3474,
      "armour": 3475,
      "##ctions": 3476,
      "resc": 3477,
      "sicilia": 3478,
      "puts": 3479,
      "compan": 3480,
      "slept": 3481,
      "accursed": 3482,
      "kindly": 3483,
      "smooth": 3484,
      "smiles": 3485,
      "tremble": 3486,
      "charged": 3487,
      "behalf": 3488,
      "volsce": 3489,
      "imposs": 3490,
      "rogue": 3491,
      "friendly": 3492,
      "passion": 3493,
      "passage": 3494,
      "giving": 3495,
      "prosperous": 3496,
      "anti": 3497,
      "advance": 3498,
      "hateful": 3499,
      "instant": 3500,
      "##uteous": 3501,
      "contented": 3502,
      "wants": 3503,
      "revenged": 3504,
      "supposed": 3505,
      "freely": 3506,
      "build": 3507,
      "##ified": 3508,
      "monstr": 3509,
      "hardly": 3510,
      "surrey": 3511,
      "increase": 3512,
      "granted": 3513,
      "resolution": 3514,
      "finds": 3515,
      "takes": 3516,
      "venom": 3517,
      "terms": 3518,
      "raise": 3519,
      "sky": 3520,
      "absent": 3521,
      "privile": 3522,
      "alike": 3523,
      "wait": 3524,
      "respected": 3525,
      "urge": 3526,
      "abhor": 3527,
      "suspect": 3528,
      "forswear": 3529,
      "famous": 3530,
      "feeling": 3531,
      "below": 3532,
      "lusty": 3533,
      "odds": 3534,
      "naples": 3535,
      "debt": 3536,
      "acquaint": 3537,
      "amazed": 3538,
      "committed": 3539,
      "degree": 3540,
      "avoid": 3541,
      "dorcas": 3542,
      "fathers": 3543,
      "thrice": 3544,
      "treacherous": 3545,
      "earnest": 3546,
      "unhappy": 3547,
      "perpetual": 3548,
      "particular": 3549,
      "dagger": 3550,
      "sceptre": 3551,
      "##olesome": 3552,
      "willoughby": 3553,
      "monstrous": 3554,
      "bade": 3555,
      "boots": 3556,
      "dress": 3557,
      "fig": 3558,
      "lent": 3559,
      "lun": 3560,
      "mor": 3561,
      "oak": 3562,
      "pu": 3563,
      "pure": 3564,
      "rul": 3565,
      "rap": 3566,
      "rail": 3567,
      "salt": 3568,
      "test": 3569,
      "tame": 3570,
      "taught": 3571,
      "tied": 3572,
      "tush": 3573,
      "vows": 3574,
      "vault": 3575,
      "yond": 3576,
      "##oked": 3577,
      "##rain": 3578,
      "##rust": 3579,
      "##hire": 3580,
      "##gent": 3581,
      "##gic": 3582,
      "##afe": 3583,
      "##pass": 3584,
      "##fret": 3585,
      "##just": 3586,
      "thorn": 3587,
      "##ints": 3588,
      "##ense": 3589,
      "##essel": 3590,
      "whip": 3591,
      "beard": 3592,
      "bethink": 3593,
      "##irm": 3594,
      "mel": 3595,
      "##itable": 3596,
      "weather": 3597,
      "stroke": 3598,
      "ital": 3599,
      "ash": 3600,
      "##aline": 3601,
      "lion": 3602,
      "sell": 3603,
      "season": 3604,
      "anointed": 3605,
      "willing": 3606,
      "willingly": 3607,
      "rej": 3608,
      "##liament": 3609,
      "##andal": 3610,
      "herald": 3611,
      "sull": 3612,
      "brid": 3613,
      "cher": 3614,
      "chast": 3615,
      "une": 3616,
      "unjust": 3617,
      "sirs": 3618,
      "constant": 3619,
      "manif": 3620,
      "##akes": 3621,
      "saying": 3622,
      "lovely": 3623,
      "pot": 3624,
      "##ortion": 3625,
      "warlike": 3626,
      "shoulder": 3627,
      "spl": 3628,
      "alons": 3629,
      "hasty": 3630,
      "gently": 3631,
      "aboard": 3632,
      "dischar": 3633,
      "tells": 3634,
      "corre": 3635,
      "peers": 3636,
      "thinking": 3637,
      "##ized": 3638,
      "perforce": 3639,
      "fears": 3640,
      "admit": 3641,
      "adrian": 3642,
      "fairer": 3643,
      "greatest": 3644,
      "##elt": 3645,
      "commission": 3646,
      "partly": 3647,
      "wrought": 3648,
      "slay": 3649,
      "begu": 3650,
      "hencefor": 3651,
      "mistrust": 3652,
      "joint": 3653,
      "##ival": 3654,
      "accused": 3655,
      "accomp": 3656,
      "helm": 3657,
      "trees": 3658,
      "holds": 3659,
      "braw": 3660,
      "parliament": 3661,
      "forthwith": 3662,
      "appreh": 3663,
      "afterno": 3664,
      "pomfret": 3665,
      "happily": 3666,
      "robb": 3667,
      "meeting": 3668,
      "retire": 3669,
      "witch": 3670,
      "advice": 3671,
      "advised": 3672,
      "soundly": 3673,
      "hanged": 3674,
      "assured": 3675,
      "desert": 3676,
      "intellig": 3677,
      "afford": 3678,
      "craft": 3679,
      "silent": 3680,
      "heirs": 3681,
      "record": 3682,
      "infer": 3683,
      "ruth": 3684,
      "hunt": 3685,
      "profit": 3686,
      "nobly": 3687,
      "raised": 3688,
      "romans": 3689,
      "single": 3690,
      "sickness": 3691,
      "waste": 3692,
      "plainly": 3693,
      "garland": 3694,
      "pieces": 3695,
      "regard": 3696,
      "virgin": 3697,
      "veins": 3698,
      "grieve": 3699,
      "groans": 3700,
      "estate": 3701,
      "summ": 3702,
      "urged": 3703,
      "waking": 3704,
      "affections": 3705,
      "lark": 3706,
      "amongst": 3707,
      "torch": 3708,
      "injur": 3709,
      "arrived": 3710,
      "offended": 3711,
      "streets": 3712,
      "conceit": 3713,
      "instruments": 3714,
      "gaoler": 3715,
      "tarry": 3716,
      "dismiss": 3717,
      "imagine": 3718,
      "elder": 3719,
      "grandam": 3720,
      "iron": 3721,
      "deceit": 3722,
      "rosaline": 3723,
      "achie": 3724,
      "neglect": 3725,
      "imprisonment": 3726,
      "daily": 3727,
      "stopp": 3728,
      "pronounce": 3729,
      "loyal": 3730,
      "patricians": 3731,
      "aedile": 3732,
      "equal": 3733,
      "ireland": 3734,
      "rascal": 3735,
      "wondrous": 3736,
      "apparent": 3737,
      "protector": 3738,
      "fashion": 3739,
      "special": 3740,
      "circumst": 3741,
      "sanctuary": 3742,
      "journey": 3743,
      "maintain": 3744,
      "reverence": 3745,
      "according": 3746,
      "huntsman": 3747,
      "grievous": 3748,
      "alonso": 3749,
      "afternoon": 3750,
      "apt": 3751,
      "aunt": 3752,
      "bore": 3753,
      "caught": 3754,
      "cerem": 3755,
      "dim": 3756,
      "food": 3757,
      "fun": 3758,
      "feet": 3759,
      "hic": 3760,
      "horn": 3761,
      "mult": 3762,
      "mount": 3763,
      "nail": 3764,
      "pee": 3765,
      "pound": 3766,
      "rust": 3767,
      "rare": 3768,
      "ride": 3769,
      "sed": 3770,
      "sue": 3771,
      "sire": 3772,
      "squ": 3773,
      "tur": 3774,
      "tall": 3775,
      "tun": 3776,
      "tree": 3777,
      "task": 3778,
      "vaugh": 3779,
      "vessel": 3780,
      "ward": 3781,
      "wake": 3782,
      "yoke": 3783,
      "##lar": 3784,
      "##lis": 3785,
      "##uce": 3786,
      "##res": 3787,
      "##rest": 3788,
      "##gu": 3789,
      "##gro": 3790,
      "##ders": 3791,
      "##mish": 3792,
      "##ping": 3793,
      "##water": 3794,
      "##kin": 3795,
      "##zz": 3796,
      "##zwater": 3797,
      "thie": 3798,
      "thick": 3799,
      "##iny": 3800,
      "##ative": 3801,
      "##enant": 3802,
      "##esar": 3803,
      "##onc": 3804,
      "whit": 3805,
      "wholesome": 3806,
      "##omach": 3807,
      "##edge": 3808,
      "inch": 3809,
      "inher": 3810,
      "habit": 3811,
      "##etite": 3812,
      "##utch": 3813,
      "##utenant": 3814,
      "shield": 3815,
      "forfeit": 3816,
      "iss": 3817,
      "mem": 3818,
      "##keley": 3819,
      "##itation": 3820,
      "sting": 3821,
      "stick": 3822,
      "stro": 3823,
      "stout": 3824,
      "stretch": 3825,
      "stomach": 3826,
      "##uses": 3827,
      "dove": 3828,
      "dogs": 3829,
      "depe": 3830,
      "decl": 3831,
      "froward": 3832,
      "sees": 3833,
      "seldom": 3834,
      "rev": 3835,
      "rece": 3836,
      "reck": 3837,
      "reli": 3838,
      "reach": 3839,
      "##raced": 3840,
      "##light": 3841,
      "alliance": 3842,
      "lock": 3843,
      "chase": 3844,
      "##ulf": 3845,
      "##ulate": 3846,
      "knaves": 3847,
      "##illing": 3848,
      "unse": 3849,
      "const": 3850,
      "##aking": 3851,
      "ens": 3852,
      "proc": 3853,
      "arise": 3854,
      "clim": 3855,
      "poster": 3856,
      "points": 3857,
      "##orted": 3858,
      "ago": 3859,
      "agree": 3860,
      "##ote": 3861,
      "fires": 3862,
      "sple": 3863,
      "spit": 3864,
      "spread": 3865,
      "##inder": 3866,
      "twain": 3867,
      "graves": 3868,
      "abide": 3869,
      "exer": 3870,
      "exam": 3871,
      "except": 3872,
      "exchange": 3873,
      "served": 3874,
      "peer": 3875,
      "flow": 3876,
      "flood": 3877,
      "flourish": 3878,
      "##rows": 3879,
      "ado": 3880,
      "fairest": 3881,
      "merit": 3882,
      "betimes": 3883,
      "strive": 3884,
      "secure": 3885,
      "scape": 3886,
      "scandal": 3887,
      "counc": 3888,
      "newly": 3889,
      "parting": 3890,
      "capt": 3891,
      "wrink": 3892,
      "cost": 3893,
      "remo": 3894,
      "remove": 3895,
      "slaves": 3896,
      "image": 3897,
      "began": 3898,
      "repr": 3899,
      "vienn": 3900,
      "household": 3901,
      "##ullus": 3902,
      "lieutenant": 3903,
      "resist": 3904,
      "sets": 3905,
      "complex": 3906,
      "beseem": 3907,
      "##ivil": 3908,
      "younger": 3909,
      "accident": 3910,
      "confirm": 3911,
      "smell": 3912,
      "treasure": 3913,
      "charac": 3914,
      "rights": 3915,
      "powerful": 3916,
      "brace": 3917,
      "appointed": 3918,
      "appetite": 3919,
      "breathed": 3920,
      "boys": 3921,
      "##forced": 3922,
      "native": 3923,
      "servants": 3924,
      "carlis": 3925,
      "feather": 3926,
      "weeps": 3927,
      "lesser": 3928,
      "disple": 3929,
      "griefs": 3930,
      "##ruction": 3931,
      "sleeping": 3932,
      "faithful": 3933,
      "falsehood": 3934,
      "virtues": 3935,
      "assure": 3936,
      "wide": 3937,
      "sovereignty": 3938,
      "supply": 3939,
      "suppose": 3940,
      "ripe": 3941,
      "commons": 3942,
      "yielded": 3943,
      "caesar": 3944,
      "oaths": 3945,
      "fitzwater": 3946,
      "surely": 3947,
      "reconc": 3948,
      "barren": 3949,
      "beholding": 3950,
      "wooing": 3951,
      "exton": 3952,
      "distress": 3953,
      "growing": 3954,
      "prett": 3955,
      "regal": 3956,
      "absolute": 3957,
      "books": 3958,
      "mouths": 3959,
      "weakness": 3960,
      "groom": 3961,
      "satisfy": 3962,
      "blemish": 3963,
      "gallant": 3964,
      "bridegro": 3965,
      "complaint": 3966,
      "defence": 3967,
      "##grim": 3968,
      "##ancholy": 3969,
      "beasts": 3970,
      "trumpet": 3971,
      "refuse": 3972,
      "differ": 3973,
      "unkind": 3974,
      "conceal": 3975,
      "disgrace": 3976,
      "belong": 3977,
      "unfold": 3978,
      "obedient": 3979,
      "tempest": 3980,
      "entertainment": 3981,
      "##soever": 3982,
      "persuade": 3983,
      "determined": 3984,
      "pierce": 3985,
      "holp": 3986,
      "milan": 3987,
      "pilgrim": 3988,
      "snow": 3989,
      "vouchs": 3990,
      "tyranny": 3991,
      "proportion": 3992,
      "substit": 3993,
      "ballad": 3994,
      "conspirator": 3995,
      "berkeley": 3996,
      "fancy": 3997,
      "prodig": 3998,
      "purchase": 3999,
      "current": 4000,
      "conference": 4001,
      "penitent": 4002,
      "dignity": 4003,
      "repeal": 4004,
      "devotion": 4005,
      "rebellion": 4006,
      "dowry": 4007,
      "impossible": 4008,
      "ruled": 4009,
      "melancholy": 4010,
      "vaughan": 4011,
      "vienna": 4012,
      "carlisle": 4013,
      "bridegroom": 4014,
      "ax": 4015,
      "bay": 4016,
      "bere": 4017,
      "cat": 4018,
      "civil": 4019,
      "dri": 4020,
      "daint": 4021,
      "dash": 4022,
      "fier": 4023,
      "furnish": 4024,
      "goose": 4025,
      "gaze": 4026,
      "hor": 4027,
      "hated": 4028,
      "id": 4029,
      "jes": 4030,
      "jot": 4031,
      "lur": 4032,
      "lap": 4033,
      "mood": 4034,
      "minds": 4035,
      "nim": 4036,
      "nest": 4037,
      "ope": 4038,
      "path": 4039,
      "pause": 4040,
      "push": 4041,
      "tend": 4042,
      "tullus": 4043,
      "wink": 4044,
      "yon": 4045,
      "##og": 4046,
      "##upt": 4047,
      "##ipt": 4048,
      "##ses": 4049,
      "##same": 4050,
      "##hen": 4051,
      "##nes": 4052,
      "##aid": 4053,
      "##tles": 4054,
      "##teen": 4055,
      "##ded": 4056,
      "##con": 4057,
      "##cceed": 4058,
      "##bed": 4059,
      "##bation": 4060,
      "thread": 4061,
      "##nday": 4062,
      "##inct": 4063,
      "##ories": 4064,
      "##espass": 4065,
      "toad": 4066,
      "toil": 4067,
      "##onation": 4068,
      "##aniel": 4069,
      "wheel": 4070,
      "whereto": 4071,
      "wipe": 4072,
      "beam": 4073,
      "##stery": 4074,
      "mystery": 4075,
      "heat": 4076,
      "inv": 4077,
      "infection": 4078,
      "ingr": 4079,
      "shot": 4080,
      "notice": 4081,
      "stee": 4082,
      "stud": 4083,
      "stern": 4084,
      "##ales": 4085,
      "butt": 4086,
      "liken": 4087,
      "##aming": 4088,
      "##ases": 4089,
      "deck": 4090,
      "deaf": 4091,
      "frail": 4092,
      "whate": 4093,
      "anch": 4094,
      "william": 4095,
      "reap": 4096,
      "##lier": 4097,
      "super": 4098,
      "suitor": 4099,
      "succeed": 4100,
      "lover": 4101,
      "lovest": 4102,
      "##ourse": 4103,
      "train": 4104,
      "trespass": 4105,
      "chall": 4106,
      "chaste": 4107,
      "##ulch": 4108,
      "knot": 4109,
      "##illy": 4110,
      "league": 4111,
      "unst": 4112,
      "shear": 4113,
      "thereby": 4114,
      "marin": 4115,
      "marks": 4116,
      "fact": 4117,
      "fawn": 4118,
      "conceive": 4119,
      "##seless": 4120,
      "dukes": 4121,
      "manage": 4122,
      "lets": 4123,
      "blown": 4124,
      "##icles": 4125,
      "swe": 4126,
      "swain": 4127,
      "clap": 4128,
      "grat": 4129,
      "grain": 4130,
      "knowing": 4131,
      "spect": 4132,
      "warri": 4133,
      "likely": 4134,
      "agre": 4135,
      "aged": 4136,
      "spy": 4137,
      "##roll": 4138,
      "somewh": 4139,
      "graced": 4140,
      "edge": 4141,
      "tooth": 4142,
      "deaths": 4143,
      "heartily": 4144,
      "abused": 4145,
      "##agues": 4146,
      "##bert": 4147,
      "descent": 4148,
      "descend": 4149,
      "betray": 4150,
      "stranger": 4151,
      "greatness": 4152,
      "scold": 4153,
      "sweeter": 4154,
      "##osing": 4155,
      "heavenly": 4156,
      "parted": 4157,
      "coff": 4158,
      "angel": 4159,
      "remorse": 4160,
      "stays": 4161,
      "beget": 4162,
      "repose": 4163,
      "throng": 4164,
      "trans": 4165,
      "transp": 4166,
      "dearest": 4167,
      "dearly": 4168,
      "harsh": 4169,
      "provided": 4170,
      "youngest": 4171,
      "subd": 4172,
      "subtle": 4173,
      "holding": 4174,
      "emilia": 4175,
      "impat": 4176,
      "rod": 4177,
      "mischance": 4178,
      "object": 4179,
      "uncles": 4180,
      "sorrows": 4181,
      "dispers": 4182,
      "adventure": 4183,
      "drag": 4184,
      "human": 4185,
      "policy": 4186,
      "hangs": 4187,
      "careless": 4188,
      "countrymen": 4189,
      "wanting": 4190,
      "commonwe": 4191,
      "yields": 4192,
      "beaut": 4193,
      "beauteous": 4194,
      "appeal": 4195,
      "##aments": 4196,
      "craves": 4197,
      "##ecary": 4198,
      "burst": 4199,
      "monument": 4200,
      "saints": 4201,
      "windows": 4202,
      "sights": 4203,
      "mirth": 4204,
      "trusty": 4205,
      "boldly": 4206,
      "infant": 4207,
      "visage": 4208,
      "hungry": 4209,
      "redress": 4210,
      "fourteen": 4211,
      "stronger": 4212,
      "execute": 4213,
      "executed": 4214,
      "fix": 4215,
      "fift": 4216,
      "burning": 4217,
      "term": 4218,
      "suitors": 4219,
      "pleasing": 4220,
      "cheerly": 4221,
      "direction": 4222,
      "verily": 4223,
      "proclam": 4224,
      "selfsame": 4225,
      "writing": 4226,
      "estim": 4227,
      "foreign": 4228,
      "frowns": 4229,
      "babes": 4230,
      "limit": 4231,
      "pitiful": 4232,
      "wakes": 4233,
      "triumphant": 4234,
      "slip": 4235,
      "##head": 4236,
      "occup": 4237,
      "executioner": 4238,
      "innoc": 4239,
      "instruction": 4240,
      "extremity": 4241,
      "shroud": 4242,
      "disgu": 4243,
      "shadows": 4244,
      "prophet": 4245,
      "ignorance": 4246,
      "neighbours": 4247,
      "bigger": 4248,
      "westmore": 4249,
      "stephen": 4250,
      "modest": 4251,
      "modesty": 4252,
      "dismal": 4253,
      "determine": 4254,
      "shrewd": 4255,
      "wager": 4256,
      "necessity": 4257,
      "freed": 4258,
      "suffic": 4259,
      "scratch": 4260,
      "scroop": 4261,
      "eleven": 4262,
      "eagle": 4263,
      "thirty": 4264,
      "clothes": 4265,
      "wolf": 4266,
      "steeds": 4267,
      "tapster": 4268,
      "places": 4269,
      "trembling": 4270,
      "jewel": 4271,
      "sepulch": 4272,
      "concern": 4273,
      "adversaries": 4274,
      "bleeding": 4275,
      "opposite": 4276,
      "##ternal": 4277,
      "privilege": 4278,
      "italy": 4279,
      "sullen": 4280,
      "cherish": 4281,
      "thieves": 4282,
      "memory": 4283,
      "strokes": 4284,
      "exercise": 4285,
      "removed": 4286,
      "vouchsafe": 4287,
      "axe": 4288,
      "fierce": 4289,
      "somewhat": 4290,
      "westmoreland": 4291,
      "ale": 4292,
      "bent": 4293,
      "bill": 4294,
      "borrow": 4295,
      "balm": 4296,
      "cy": 4297,
      "cou": 4298,
      "cop": 4299,
      "dion": 4300,
      "date": 4301,
      "fard": 4302,
      "fant": 4303,
      "gid": 4304,
      "gaz": 4305,
      "hom": 4306,
      "hare": 4307,
      "hire": 4308,
      "hatch": 4309,
      "honey": 4310,
      "lat": 4311,
      "lower": 4312,
      "lying": 4313,
      "main": 4314,
      "mould": 4315,
      "mates": 4316,
      "net": 4317,
      "nath": 4318,
      "numb": 4319,
      "nupt": 4320,
      "oh": 4321,
      "omit": 4322,
      "por": 4323,
      "pear": 4324,
      "pick": 4325,
      "paint": 4326,
      "rue": 4327,
      "rack": 4328,
      "rip": 4329,
      "sings": 4330,
      "sith": 4331,
      "sought": 4332,
      "tie": 4333,
      "tig": 4334,
      "tack": 4335,
      "tired": 4336,
      "vent": 4337,
      "velve": 4338,
      "wore": 4339,
      "waves": 4340,
      "zeal": 4341,
      "##lous": 4342,
      "##oe": 4343,
      "##rich": 4344,
      "##rate": 4345,
      "##iven": 4346,
      "##iving": 4347,
      "##sing": 4348,
      "##some": 4349,
      "##hrew": 4350,
      "##ns": 4351,
      "##ny": 4352,
      "##nicious": 4353,
      "##ax": 4354,
      "##tom": 4355,
      "##dess": 4356,
      "##com": 4357,
      "##mas": 4358,
      "##morrow": 4359,
      "##bl": 4360,
      "##bio": 4361,
      "##born": 4362,
      "##bishop": 4363,
      "##pit": 4364,
      "##father": 4365,
      "##fold": 4366,
      "##wife": 4367,
      "##ze": 4368,
      "thw": 4369,
      "thin": 4370,
      "thumb": 4371,
      "##inal": 4372,
      "##inate": 4373,
      "##orough": 4374,
      "##enge": 4375,
      "##arm": 4376,
      "toy": 4377,
      "tomorrow": 4378,
      "##isc": 4379,
      "##ision": 4380,
      "##oned": 4381,
      "##ingers": 4382,
      "whipp": 4383,
      "whores": 4384,
      "##eder": 4385,
      "heap": 4386,
      "heels": 4387,
      "ink": 4388,
      "##chant": 4389,
      "##chief": 4390,
      "haught": 4391,
      "##sey": 4392,
      "##sell": 4393,
      "shook": 4394,
      "share": 4395,
      "shop": 4396,
      "shines": 4397,
      "shrift": 4398,
      "##ayed": 4399,
      "forty": 4400,
      "mew": 4401,
      "noted": 4402,
      "##itiff": 4403,
      "##oops": 4404,
      "stale": 4405,
      "staff": 4406,
      "price": 4407,
      "prime": 4408,
      "asse": 4409,
      "##athe": 4410,
      "hist": 4411,
      "soc": 4412,
      "##ests": 4413,
      "##idam": 4414,
      "licio": 4415,
      "liking": 4416,
      "livery": 4417,
      "dozen": 4418,
      "fro": 4419,
      "franc": 4420,
      "framed": 4421,
      "search": 4422,
      "wills": 4423,
      "rear": 4424,
      "##thern": 4425,
      "##raid": 4426,
      "##rage": 4427,
      "##raham": 4428,
      "##lied": 4429,
      "hers": 4430,
      "##iege": 4431,
      "suits": 4432,
      "load": 4433,
      "lovers": 4434,
      "shallow": 4435,
      "ourself": 4436,
      "trim": 4437,
      "trench": 4438,
      "troop": 4439,
      "trunk": 4440,
      "troops": 4441,
      "neat": 4442,
      "brown": 4443,
      "chat": 4444,
      "chos": 4445,
      "boast": 4446,
      "goods": 4447,
      "upright": 4448,
      "leg": 4449,
      "unh": 4450,
      "unm": 4451,
      "unre": 4452,
      "unfe": 4453,
      "unsh": 4454,
      "orn": 4455,
      "##ilth": 4456,
      "##umble": 4457,
      "mars": 4458,
      "moves": 4459,
      "amiss": 4460,
      "amend": 4461,
      "ambit": 4462,
      "##aken": 4463,
      "enforced": 4464,
      "enrich": 4465,
      "process": 4466,
      "blast": 4467,
      "bliss": 4468,
      "##ateful": 4469,
      "##ical": 4470,
      "##ably": 4471,
      "##ables": 4472,
      "##ola": 4473,
      "##unate": 4474,
      "##unken": 4475,
      "grim": 4476,
      "grew": 4477,
      "whereon": 4478,
      "worm": 4479,
      "madness": 4480,
      "##ndsire": 4481,
      "ages": 4482,
      "dido": 4483,
      "glo": 4484,
      "grandsire": 4485,
      "goddess": 4486,
      "##rif": 4487,
      "##rible": 4488,
      "alb": 4489,
      "alms": 4490,
      "looked": 4491,
      "abuse": 4492,
      "abraham": 4493,
      "exceed": 4494,
      "disease": 4495,
      "serp": 4496,
      "telling": 4497,
      "coronation": 4498,
      "offices": 4499,
      "##aved": 4500,
      "bread": 4501,
      "pernicious": 4502,
      "luck": 4503,
      "fearing": 4504,
      "##ensed": 4505,
      "##ension": 4506,
      "##ophy": 4507,
      "strang": 4508,
      "secre": 4509,
      "score": 4510,
      "scatter": 4511,
      "sweetly": 4512,
      "counsell": 4513,
      "caps": 4514,
      "coll": 4515,
      "##alties": 4516,
      "paid": 4517,
      "reply": 4518,
      "reputation": 4519,
      "mightst": 4520,
      "##tshire": 4521,
      "childish": 4522,
      "cambio": 4523,
      "droop": 4524,
      "drunken": 4525,
      "putting": 4526,
      "compare": 4527,
      "aud": 4528,
      "beshrew": 4529,
      "provide": 4530,
      "provoked": 4531,
      "bestr": 4532,
      "bestow": 4533,
      "bidding": 4534,
      "purge": 4535,
      "confound": 4536,
      "smother": 4537,
      "charm": 4538,
      "backs": 4539,
      "apoth": 4540,
      "bank": 4541,
      "behav": 4542,
      "senseless": 4543,
      "endured": 4544,
      "breathing": 4545,
      "laws": 4546,
      "trif": 4547,
      "travell": 4548,
      "escape": 4549,
      "##claim": 4550,
      "minded": 4551,
      "royalty": 4552,
      "lightning": 4553,
      "carried": 4554,
      "misc": 4555,
      "misfort": 4556,
      "devour": 4557,
      "falls": 4558,
      "falling": 4559,
      "obser": 4560,
      "prosperity": 4561,
      "falcon": 4562,
      "depose": 4563,
      "attorn": 4564,
      "courteous": 4565,
      "careful": 4566,
      "##aunts": 4567,
      "villains": 4568,
      "cheap": 4569,
      "sitting": 4570,
      "discourse": 4571,
      "affright": 4572,
      "affords": 4573,
      "buzz": 4574,
      "straw": 4575,
      "caitiff": 4576,
      "wears": 4577,
      "blessing": 4578,
      "monster": 4579,
      "monarch": 4580,
      "musicians": 4581,
      "lately": 4582,
      "sadness": 4583,
      "sooner": 4584,
      "fiend": 4585,
      "metal": 4586,
      "recre": 4587,
      "recover": 4588,
      "recomp": 4589,
      "learned": 4590,
      "minute": 4591,
      "hung": 4592,
      "despised": 4593,
      "officers": 4594,
      "taking": 4595,
      "takest": 4596,
      "nobility": 4597,
      "flattering": 4598,
      "burns": 4599,
      "burnt": 4600,
      "praises": 4601,
      "wisely": 4602,
      "##acle": 4603,
      "##acles": 4604,
      "exped": 4605,
      "favours": 4606,
      "written": 4607,
      "joints": 4608,
      "liberal": 4609,
      "esteem": 4610,
      "violence": 4611,
      "destruction": 4612,
      "insol": 4613,
      "insult": 4614,
      "rebels": 4615,
      "bitterly": 4616,
      "actions": 4617,
      "limbs": 4618,
      "suddenly": 4619,
      "possession": 4620,
      "succession": 4621,
      "unworth": 4622,
      "spoil": 4623,
      "sacrif": 4624,
      "gladly": 4625,
      "tutor": 4626,
      "condemned": 4627,
      "churchyard": 4628,
      "midnight": 4629,
      "mildly": 4630,
      "injury": 4631,
      "meddle": 4632,
      "rank": 4633,
      "ransom": 4634,
      "gardener": 4635,
      "bastards": 4636,
      "threatening": 4637,
      "steps": 4638,
      "guests": 4639,
      "inclined": 4640,
      "tricks": 4641,
      "archbishop": 4642,
      "archidam": 4643,
      "covert": 4644,
      "immortal": 4645,
      "months": 4646,
      "piercing": 4647,
      "conclud": 4648,
      "birds": 4649,
      "befall": 4650,
      "prevented": 4651,
      "substance": 4652,
      "pinch": 4653,
      "thirst": 4654,
      "merely": 4655,
      "mountain": 4656,
      "senses": 4657,
      "##ocate": 4658,
      "shapes": 4659,
      "weapon": 4660,
      "weapons": 4661,
      "statue": 4662,
      "revolt": 4663,
      "conjure": 4664,
      "bands": 4665,
      "censure": 4666,
      "torture": 4667,
      "bottom": 4668,
      "afflict": 4669,
      "wiltshire": 4670,
      "inquire": 4671,
      "clamour": 4672,
      "prefer": 4673,
      "rescue": 4674,
      "companion": 4675,
      "moral": 4676,
      "rapier": 4677,
      "rejoice": 4678,
      "henceforth": 4679,
      "intelligence": 4680,
      "ruthless": 4681,
      "peevish": 4682,
      "depend": 4683,
      "constable": 4684,
      "spleen": 4685,
      "character": 4686,
      "prettiest": 4687,
      "jesu": 4688,
      "likeness": 4689,
      "challenge": 4690,
      "sweat": 4691,
      "warriors": 4692,
      "dispersed": 4693,
      "commonwealth": 4694,
      "proclamation": 4695,
      "sepulchre": 4696,
      "fardel": 4697,
      "giddy": 4698,
      "nathaniel": 4699,
      "nuptial": 4700,
      "velvet": 4701,
      "chosen": 4702,
      "ambitious": 4703,
      "apothecary": 4704,
      "behavior": 4705,
      "unworthy": 4706,
      "archidamus": 4707,
      "cent": 4708,
      "card": 4709,
      "cab": 4710,
      "cot": 4711,
      "cook": 4712,
      "cush": 4713,
      "dst": 4714,
      "dine": 4715,
      "dian": 4716,
      "dower": 4717,
      "dried": 4718,
      "eight": 4719,
      "fin": 4720,
      "fol": 4721,
      "fret": 4722,
      "fif": 4723,
      "felt": 4724,
      "fingers": 4725,
      "gn": 4726,
      "gam": 4727,
      "gap": 4728,
      "gains": 4729,
      "hu": 4730,
      "hy": 4731,
      "ice": 4732,
      "keys": 4733,
      "lour": 4734,
      "lance": 4735,
      "mat": 4736,
      "mas": 4737,
      "mong": 4738,
      "nar": 4739,
      "nice": 4740,
      "nourish": 4741,
      "ought": 4742,
      "pi": 4743,
      "pent": 4744,
      "pour": 4745,
      "pill": 4746,
      "pace": 4747,
      "pict": 4748,
      "rar": 4749,
      "rum": 4750,
      "rate": 4751,
      "rig": 4752,
      "rouse": 4753,
      "sow": 4754,
      "sess": 4755,
      "sau": 4756,
      "sounds": 4757,
      "sides": 4758,
      "silly": 4759,
      "tard": 4760,
      "vast": 4761,
      "vass": 4762,
      "zounds": 4763,
      "##lain": 4764,
      "##long": 4765,
      "##lves": 4766,
      "##rance": 4767,
      "##ially": 4768,
      "##gund": 4769,
      "##giance": 4770,
      "##aving": 4771,
      "##action": 4772,
      "##acy": 4773,
      "##ece": 4774,
      "##egr": 4775,
      "##egiance": 4776,
      "##ds": 4777,
      "##me": 4778,
      "##mp": 4779,
      "##way": 4780,
      "##wks": 4781,
      "##kest": 4782,
      "##erves": 4783,
      "##oured": 4784,
      "##inher": 4785,
      "tops": 4786,
      "##isement": 4787,
      "##thest": 4788,
      "##onious": 4789,
      "##onstant": 4790,
      "whist": 4791,
      "##reet": 4792,
      "beef": 4793,
      "##edic": 4794,
      "##ediate": 4795,
      "height": 4796,
      "hag": 4797,
      "hall": 4798,
      "shine": 4799,
      "shown": 4800,
      "shru": 4801,
      "ships": 4802,
      "shining": 4803,
      "shoes": 4804,
      "##aying": 4805,
      "##iring": 4806,
      "memb": 4807,
      "##urgh": 4808,
      "##itt": 4809,
      "##ims": 4810,
      "##imony": 4811,
      "week": 4812,
      "stumb": 4813,
      "asham": 4814,
      "aspect": 4815,
      "soil": 4816,
      "likes": 4817,
      "lions": 4818,
      "livest": 4819,
      "##asing": 4820,
      "##order": 4821,
      "deform": 4822,
      "fray": 4823,
      "frost": 4824,
      "frank": 4825,
      "##ckn": 4826,
      "##cket": 4827,
      "seated": 4828,
      "seized": 4829,
      "ann": 4830,
      "revel": 4831,
      "##rand": 4832,
      "goss": 4833,
      "allegiance": 4834,
      "##verty": 4835,
      "sugg": 4836,
      "sunday": 4837,
      "trow": 4838,
      "brat": 4839,
      "brains": 4840,
      "##ellow": 4841,
      "##ulter": 4842,
      "##ulous": 4843,
      "lev": 4844,
      "lect": 4845,
      "leap": 4846,
      "unth": 4847,
      "unlike": 4848,
      "##ilos": 4849,
      "##umed": 4850,
      "marvel": 4851,
      "marvell": 4852,
      "consequ": 4853,
      "herein": 4854,
      "amain": 4855,
      "amends": 4856,
      "amorous": 4857,
      "proved": 4858,
      "blue": 4859,
      "blot": 4860,
      "##iced": 4861,
      "swo": 4862,
      "swore": 4863,
      "swears": 4864,
      "cler": 4865,
      "lovel": 4866,
      "##ung": 4867,
      "pop": 4868,
      "poverty": 4869,
      "riches": 4870,
      "greed": 4871,
      "hoar": 4872,
      "holl": 4873,
      "likewise": 4874,
      "##ickle": 4875,
      "seeking": 4876,
      "spot": 4877,
      "twould": 4878,
      "##pping": 4879,
      "saved": 4880,
      "speaking": 4881,
      "also": 4882,
      "outrage": 4883,
      "abund": 4884,
      "disinher": 4885,
      "flat": 4886,
      "flock": 4887,
      "##aged": 4888,
      "offences": 4889,
      "##igned": 4890,
      "petty": 4891,
      "desc": 4892,
      "permit": 4893,
      "perchance": 4894,
      "adulter": 4895,
      "merri": 4896,
      "merchant": 4897,
      "betide": 4898,
      "##opher": 4899,
      "##angling": 4900,
      "crook": 4901,
      "crush": 4902,
      "crutch": 4903,
      "scot": 4904,
      "errand": 4905,
      "fold": 4906,
      "nights": 4907,
      "parties": 4908,
      "partner": 4909,
      "plebe": 4910,
      "coat": 4911,
      "covent": 4912,
      "cozen": 4913,
      "downright": 4914,
      "afr": 4915,
      "afraid": 4916,
      "worldly": 4917,
      "imper": 4918,
      "longs": 4919,
      "presume": 4920,
      "resem": 4921,
      "settled": 4922,
      "restrain": 4923,
      "dearer": 4924,
      "harp": 4925,
      "compound": 4926,
      "couldst": 4927,
      "beside": 4928,
      "courts": 4929,
      "pursue": 4930,
      "helps": 4931,
      "curtain": 4932,
      "smil": 4933,
      "charges": 4934,
      "apace": 4935,
      "parce": 4936,
      "parents": 4937,
      "welsh": 4938,
      "earthly": 4939,
      "drew": 4940,
      "ended": 4941,
      "hopeful": 4942,
      "busy": 4943,
      "homely": 4944,
      "pomp": 4945,
      "fully": 4946,
      "obsequ": 4947,
      "landed": 4948,
      "fever": 4949,
      "signal": 4950,
      "signify": 4951,
      "retired": 4952,
      "forgiven": 4953,
      "advocate": 4954,
      "thankful": 4955,
      "falsely": 4956,
      "sounded": 4957,
      "strip": 4958,
      "strict": 4959,
      "delic": 4960,
      "courtier": 4961,
      "sentenced": 4962,
      "dared": 4963,
      "commands": 4964,
      "contents": 4965,
      "revenges": 4966,
      "intents": 4967,
      "integr": 4968,
      "entrance": 4969,
      "cheque": 4970,
      "prompt": 4971,
      "kisses": 4972,
      "##iliar": 4973,
      "purple": 4974,
      "##ancing": 4975,
      "winters": 4976,
      "burgund": 4977,
      "beats": 4978,
      "beaten": 4979,
      "touching": 4980,
      "crying": 4981,
      "##ossess": 4982,
      "runs": 4983,
      "boldness": 4984,
      "minola": 4985,
      "readiness": 4986,
      "draws": 4987,
      "divor": 4988,
      "profan": 4989,
      "profane": 4990,
      "devilish": 4991,
      "entreaties": 4992,
      "lewd": 4993,
      "incensed": 4994,
      "youthful": 4995,
      "nobleness": 4996,
      "venice": 4997,
      "##noble": 4998,
      "wednes": 4999,
      "skill": 5000,
      "skull": 5001,
      "cloudy": 5002,
      "springs": 5003,
      "evils": 5004,
      "interchange": 5005,
      "grieves": 5006,
      "grieved": 5007,
      "pedlar": 5008,
      "wax": 5009,
      "satisfaction": 5010,
      "bowels": 5011,
      "eaten": 5012,
      "lamentable": 5013,
      "towns": 5014,
      "safely": 5015,
      "baby": 5016,
      "lambs": 5017,
      "defy": 5018,
      "beggars": 5019,
      "christopher": 5020,
      "hurl": 5021,
      "palm": 5022,
      "approbation": 5023,
      "cowardly": 5024,
      "waked": 5025,
      "drinking": 5026,
      "darkness": 5027,
      "kinsmen": 5028,
      "slight": 5029,
      "slipp": 5030,
      "changing": 5031,
      "departure": 5032,
      "usurping": 5033,
      "fondly": 5034,
      "middle": 5035,
      "mildness": 5036,
      "array": 5037,
      "ghostly": 5038,
      "familiar": 5039,
      "lists": 5040,
      "storms": 5041,
      "stops": 5042,
      "treasons": 5043,
      "extreme": 5044,
      "shrie": 5045,
      "stream": 5046,
      "mutinous": 5047,
      "philos": 5048,
      "conquest": 5049,
      "temples": 5050,
      "threaten": 5051,
      "intended": 5052,
      "eldest": 5053,
      "##spurgh": 5054,
      "acquainted": 5055,
      "schoolm": 5056,
      "greeting": 5057,
      "immediate": 5058,
      "bootless": 5059,
      "conclude": 5060,
      "ministers": 5061,
      "owes": 5062,
      "roses": 5063,
      "syc": 5064,
      "meantime": 5065,
      "unlaw": 5066,
      "tyrannous": 5067,
      "gifts": 5068,
      "tempted": 5069,
      "conqueror": 5070,
      "infected": 5071,
      "troubled": 5072,
      "hostess": 5073,
      "heavier": 5074,
      "designs": 5075,
      "preserve": 5076,
      "detest": 5077,
      "vanity": 5078,
      "wandering": 5079,
      "suprem": 5080,
      "dissol": 5081,
      "accusation": 5082,
      "ravenspurgh": 5083,
      "winged": 5084,
      "robes": 5085,
      "discontented": 5086,
      "varlet": 5087,
      "hazard": 5088,
      "stolen": 5089,
      "savage": 5090,
      "advert": 5091,
      "instantly": 5092,
      "figure": 5093,
      "bridal": 5094,
      "split": 5095,
      "discharge": 5096,
      "correction": 5097,
      "apprehend": 5098,
      "injurious": 5099,
      "circumstance": 5100,
      "reckon": 5101,
      "procure": 5102,
      "example": 5103,
      "complexion": 5104,
      "reconcile": 5105,
      "unkindness": 5106,
      "pilgrimage": 5107,
      "substitute": 5108,
      "bereft": 5109,
      "nimble": 5110,
      "beams": 5111,
      "steep": 5112,
      "estimation": 5113,
      "occupation": 5114,
      "freedom": 5115,
      "sufficient": 5116,
      "couple": 5117,
      "fantast": 5118,
      "frozen": 5119,
      "misfortune": 5120,
      "recompense": 5121,
      "folks": 5122,
      "narrow": 5123,
      "members": 5124,
      "ashamed": 5125,
      "coventry": 5126,
      "integrity": 5127,
      "burgundy": 5128,
      "wednesday": 5129,
      "philosophy": 5130,
      "ape": 5131,
      "afe": 5132,
      "afore": 5133,
      "ackn": 5134,
      "bul": 5135,
      "boun": 5136,
      "bows": 5137,
      "cord": 5138,
      "cli": 5139,
      "cand": 5140,
      "cords": 5141,
      "diest": 5142,
      "dined": 5143,
      "dumb": 5144,
      "drift": 5145,
      "dancing": 5146,
      "es": 5147,
      "event": 5148,
      "eternal": 5149,
      "fulf": 5150,
      "filth": 5151,
      "gust": 5152,
      "game": 5153,
      "gather": 5154,
      "hoo": 5155,
      "hood": 5156,
      "hill": 5157,
      "hook": 5158,
      "hinder": 5159,
      "ig": 5160,
      "jer": 5161,
      "kent": 5162,
      "key": 5163,
      "kites": 5164,
      "len": 5165,
      "lace": 5166,
      "lute": 5167,
      "linger": 5168,
      "mom": 5169,
      "mum": 5170,
      "mouse": 5171,
      "mask": 5172,
      "ned": 5173,
      "nut": 5174,
      "nigh": 5175,
      "naught": 5176,
      "named": 5177,
      "pow": 5178,
      "pest": 5179,
      "pence": 5180,
      "pant": 5181,
      "pem": 5182,
      "patter": 5183,
      "pup": 5184,
      "race": 5185,
      "ranc": 5186,
      "roof": 5187,
      "rhe": 5188,
      "sand": 5189,
      "sap": 5190,
      "sixt": 5191,
      "torn": 5192,
      "tumb": 5193,
      "taunts": 5194,
      "ug": 5195,
      "vul": 5196,
      "venture": 5197,
      "wan": 5198,
      "wet": 5199,
      "wave": 5200,
      "yard": 5201,
      "yare": 5202,
      "yester": 5203,
      "##lu": 5204,
      "##low": 5205,
      "##last": 5206,
      "##lace": 5207,
      "##oin": 5208,
      "##oster": 5209,
      "##ody": 5210,
      "##uc": 5211,
      "##uish": 5212,
      "##uiv": 5213,
      "##ually": 5214,
      "##rament": 5215,
      "##ivers": 5216,
      "##ienced": 5217,
      "##gy": 5218,
      "##gence": 5219,
      "##gist": 5220,
      "##awn": 5221,
      "##ton": 5222,
      "##eve": 5223,
      "##ead": 5224,
      "##ecy": 5225,
      "##ym": 5226,
      "##val": 5227,
      "##bour": 5228,
      "##bear": 5229,
      "##bot": 5230,
      "##bles": 5231,
      "##board": 5232,
      "##po": 5233,
      "##pire": 5234,
      "##fall": 5235,
      "threw": 5236,
      "thereto": 5237,
      "##erity": 5238,
      "##inu": 5239,
      "##inent": 5240,
      "##inies": 5241,
      "##ored": 5242,
      "##orax": 5243,
      "##ares": 5244,
      "##lling": 5245,
      "toads": 5246,
      "##thood": 5247,
      "##thage": 5248,
      "##anks": 5249,
      "##inguish": 5250,
      "nod": 5251,
      "noon": 5252,
      "whore": 5253,
      "whipt": 5254,
      "##omfort": 5255,
      "hew": 5256,
      "heel": 5257,
      "heigh": 5258,
      "heinous": 5259,
      "inh": 5260,
      "inward": 5261,
      "invent": 5262,
      "sham": 5263,
      "shout": 5264,
      "shade": 5265,
      "meed": 5266,
      "meal": 5267,
      "##urb": 5268,
      "##itter": 5269,
      "##iments": 5270,
      "start": 5271,
      "stink": 5272,
      "stag": 5273,
      "stiff": 5274,
      "stumble": 5275,
      "##advent": 5276,
      "prat": 5277,
      "prate": 5278,
      "prating": 5279,
      "asking": 5280,
      "butter": 5281,
      "##iders": 5282,
      "lick": 5283,
      "##amy": 5284,
      "##amity": 5285,
      "##asant": 5286,
      "dol": 5287,
      "dole": 5288,
      "doct": 5289,
      "deer": 5290,
      "deceive": 5291,
      "frant": 5292,
      "front": 5293,
      "severe": 5294,
      "whatsoever": 5295,
      "##aining": 5296,
      "rend": 5297,
      "rein": 5298,
      "relish": 5299,
      "##geal": 5300,
      "##lihood": 5301,
      "##peian": 5302,
      "##peach": 5303,
      "##iece": 5304,
      "sugar": 5305,
      "magist": 5306,
      "##ourn": 5307,
      "troy": 5308,
      "nept": 5309,
      "bru": 5310,
      "britt": 5311,
      "chose": 5312,
      "chop": 5313,
      "chances": 5314,
      "##ules": 5315,
      "boister": 5316,
      "knit": 5317,
      "level": 5318,
      "leaving": 5319,
      "ung": 5320,
      "unru": 5321,
      "##ustice": 5322,
      "orator": 5323,
      "marqu": 5324,
      "conven": 5325,
      "congeal": 5326,
      "moe": 5327,
      "moving": 5328,
      "moiety": 5329,
      "mang": 5330,
      "manhood": 5331,
      "blister": 5332,
      "blade": 5333,
      "blaze": 5334,
      "canop": 5335,
      "canker": 5336,
      "##ively": 5337,
      "##icle": 5338,
      "theme": 5339,
      "arri": 5340,
      "##aped": 5341,
      "closed": 5342,
      "grass": 5343,
      "hole": 5344,
      "worms": 5345,
      "worser": 5346,
      "likelihood": 5347,
      "plaint": 5348,
      "madest": 5349,
      "shoulders": 5350,
      "seeks": 5351,
      "##isting": 5352,
      "mustard": 5353,
      "northern": 5354,
      "spurs": 5355,
      "spider": 5356,
      "graces": 5357,
      "sack": 5358,
      "alar": 5359,
      "aloud": 5360,
      "exper": 5361,
      "exact": 5362,
      "diso": 5363,
      "disorder": 5364,
      "serious": 5365,
      "flint": 5366,
      "brotherhood": 5367,
      "awaked": 5368,
      "evermore": 5369,
      "everlast": 5370,
      "perf": 5371,
      "perfection": 5372,
      "eyed": 5373,
      "jupit": 5374,
      "adop": 5375,
      "merr": 5376,
      "##ption": 5377,
      "cram": 5378,
      "commends": 5379,
      "scur": 5380,
      "sweetest": 5381,
      "err": 5382,
      "error": 5383,
      "##oses": 5384,
      "fox": 5385,
      "nighting": 5386,
      "nightly": 5387,
      "##lock": 5388,
      "wring": 5389,
      "coast": 5390,
      "nobleman": 5391,
      "meaner": 5392,
      "angels": 5393,
      "contend": 5394,
      "otherwise": 5395,
      "downfall": 5396,
      "slu": 5397,
      "impeach": 5398,
      "begg": 5399,
      "begot": 5400,
      "armed": 5401,
      "presum": 5402,
      "repro": 5403,
      "merciful": 5404,
      "mothers": 5405,
      "lief": 5406,
      "thrown": 5407,
      "friendship": 5408,
      "setting": 5409,
      "rests": 5410,
      "consorted": 5411,
      "dram": 5412,
      "dearth": 5413,
      "harl": 5414,
      "harvest": 5415,
      "harbour": 5416,
      "murders": 5417,
      "murdered": 5418,
      "murderous": 5419,
      "confusion": 5420,
      "confidence": 5421,
      "confeder": 5422,
      "capulets": 5423,
      "showing": 5424,
      "apr": 5425,
      "apart": 5426,
      "braved": 5427,
      "bench": 5428,
      "bush": 5429,
      "afterward": 5430,
      "##shine": 5431,
      "##shire": 5432,
      "happier": 5433,
      "tewks": 5434,
      "cousins": 5435,
      "royalties": 5436,
      "lights": 5437,
      "carries": 5438,
      "carthage": 5439,
      "killing": 5440,
      "mischief": 5441,
      "fallen": 5442,
      "obst": 5443,
      "obsc": 5444,
      "following": 5445,
      "##udge": 5446,
      "wronged": 5447,
      "lasting": 5448,
      "feat": 5449,
      "thousands": 5450,
      "plays": 5451,
      "became": 5452,
      "suns": 5453,
      "talking": 5454,
      "advanced": 5455,
      "humility": 5456,
      "montagues": 5457,
      "strife": 5458,
      "hangman": 5459,
      "matters": 5460,
      "fights": 5461,
      "believed": 5462,
      "proudest": 5463,
      "revenue": 5464,
      "support": 5465,
      "dreamt": 5466,
      "intends": 5467,
      "doubtful": 5468,
      "breaks": 5469,
      "breaking": 5470,
      "fouler": 5471,
      "yielding": 5472,
      "appears": 5473,
      "temple": 5474,
      "causes": 5475,
      "##bric": 5476,
      "require": 5477,
      "requires": 5478,
      "burden": 5479,
      "beating": 5480,
      "tenderness": 5481,
      "sadly": 5482,
      "saddle": 5483,
      "window": 5484,
      "persons": 5485,
      "silk": 5486,
      "reported": 5487,
      "watery": 5488,
      "learning": 5489,
      "barr": 5490,
      "barb": 5491,
      "minutes": 5492,
      "confessor": 5493,
      "confession": 5494,
      "airy": 5495,
      "hunger": 5496,
      "redempt": 5497,
      "tribune": 5498,
      "divide": 5499,
      "divided": 5500,
      "devils": 5501,
      "entreaty": 5502,
      "battles": 5503,
      "surfeit": 5504,
      "surpr": 5505,
      "leaden": 5506,
      "quarter": 5507,
      "##ertaint": 5508,
      "speedy": 5509,
      "revengeful": 5510,
      "clean": 5511,
      "calamity": 5512,
      "plants": 5513,
      "attended": 5514,
      "softly": 5515,
      "flatterers": 5516,
      "distinguish": 5517,
      "disturb": 5518,
      "terr": 5519,
      "lads": 5520,
      "wedded": 5521,
      "wonderful": 5522,
      "bosoms": 5523,
      "growth": 5524,
      "harmony": 5525,
      "singular": 5526,
      "suffering": 5527,
      "sufferance": 5528,
      "acts": 5529,
      "veil": 5530,
      "privy": 5531,
      "interp": 5532,
      "interrupt": 5533,
      "ancest": 5534,
      "champ": 5535,
      "knocks": 5536,
      "proceedings": 5537,
      "breasts": 5538,
      "embass": 5539,
      "waits": 5540,
      "broad": 5541,
      "feasts": 5542,
      "undo": 5543,
      "forehead": 5544,
      "visitation": 5545,
      "bowl": 5546,
      "destiny": 5547,
      "lamentation": 5548,
      "oppression": 5549,
      "insinu": 5550,
      "rebu": 5551,
      "safegu": 5552,
      "pitied": 5553,
      "scorns": 5554,
      "smallest": 5555,
      "unwilling": 5556,
      "sacrament": 5557,
      "approved": 5558,
      "volscian": 5559,
      "volscians": 5560,
      "certainly": 5561,
      "easily": 5562,
      "slily": 5563,
      "damnable": 5564,
      "midst": 5565,
      "midwife": 5566,
      "utmost": 5567,
      "injustice": 5568,
      "stark": 5569,
      "starve": 5570,
      "wenches": 5571,
      "extremes": 5572,
      "slanderous": 5573,
      "medic": 5574,
      "reigns": 5575,
      "disgraced": 5576,
      "prophesy": 5577,
      "prophecy": 5578,
      "pursued": 5579,
      "pursuit": 5580,
      "pursuiv": 5581,
      "bending": 5582,
      "lodge": 5583,
      "lodged": 5584,
      "lodging": 5585,
      "loathed": 5586,
      "loathsome": 5587,
      "glasses": 5588,
      "patron": 5589,
      "tempor": 5590,
      "lowly": 5591,
      "tarpeian": 5592,
      "model": 5593,
      "envir": 5594,
      "blushing": 5595,
      "imagination": 5596,
      "grandfather": 5597,
      "considered": 5598,
      "cupid": 5599,
      "unpro": 5600,
      "creep": 5601,
      "crept": 5602,
      "conclusion": 5603,
      "bald": 5604,
      "milk": 5605,
      "pilot": 5606,
      "stead": 5607,
      "steward": 5608,
      "unlook": 5609,
      "unluck": 5610,
      "aims": 5611,
      "roundly": 5612,
      "forsake": 5613,
      "forsooth": 5614,
      "suffice": 5615,
      "negli": 5616,
      "roaring": 5617,
      "guiltless": 5618,
      "avoided": 5619,
      "eager": 5620,
      "loyalty": 5621,
      "cracking": 5622,
      "patrician": 5623,
      "crows": 5624,
      "sensible": 5625,
      "wolves": 5626,
      "statutes": 5627,
      "stocks": 5628,
      "chiefest": 5629,
      "corruption": 5630,
      "breeding": 5631,
      "walter": 5632,
      "rushes": 5633,
      "herds": 5634,
      "cloak": 5635,
      "compassion": 5636,
      "affliction": 5637,
      "fleet": 5638,
      "whispering": 5639,
      "relent": 5640,
      "branches": 5641,
      "swelling": 5642,
      "spark": 5643,
      "dissemb": 5644,
      "dissemble": 5645,
      "perjury": 5646,
      "perjured": 5647,
      "adverse": 5648,
      "antium": 5649,
      "abhorr": 5650,
      "lunatic": 5651,
      "puiss": 5652,
      "ashes": 5653,
      "manifest": 5654,
      "accomplish": 5655,
      "summon": 5656,
      "achieve": 5657,
      "ceremonious": 5658,
      "multitude": 5659,
      "nails": 5660,
      "tunis": 5661,
      "inherit": 5662,
      "unseen": 5663,
      "climate": 5664,
      "councils": 5665,
      "wrinkled": 5666,
      "reprie": 5667,
      "beseeming": 5668,
      "displeasure": 5669,
      "moody": 5670,
      "anchor": 5671,
      "superf": 5672,
      "shearing": 5673,
      "mariners": 5674,
      "agreed": 5675,
      "rode": 5676,
      "fifteen": 5677,
      "innocence": 5678,
      "concerns": 5679,
      "numbers": 5680,
      "pearl": 5681,
      "tiger": 5682,
      "whoreson": 5683,
      "assemb": 5684,
      "history": 5685,
      "francis": 5686,
      "ornaments": 5687,
      "gloves": 5688,
      "alban": 5689,
      "serpent": 5690,
      "secrets": 5691,
      "counsellor": 5692,
      "trifles": 5693,
      "miscar": 5694,
      "recreant": 5695,
      "insulting": 5696,
      "cabin": 5697,
      "fifth": 5698,
      "rumour": 5699,
      "tardy": 5700,
      "marvellous": 5701,
      "consequence": 5702,
      "popular": 5703,
      "scotland": 5704,
      "plebeians": 5705,
      "forgiveness": 5706,
      "delicate": 5707,
      "sycorax": 5708,
      "afeard": 5709,
      "acknow": 5710,
      "bounty": 5711,
      "ignoble": 5712,
      "lenity": 5713,
      "moment": 5714,
      "pestil": 5715,
      "pembroke": 5716,
      "pattern": 5717,
      "sixteen": 5718,
      "vulgar": 5719,
      "##adventure": 5720,
      "frantic": 5721,
      "neptune": 5722,
      "brittany": 5723,
      "boisterous": 5724,
      "unruly": 5725,
      "jupiter": 5726,
      "tewksbury": 5727,
      "redemption": 5728,
      "safeguard": 5729,
      "pursuivant": 5730,
      "bone": 5731,
      "bate": 5732,
      "bout": 5733,
      "bach": 5734,
      "bought": 5735,
      "bail": 5736,
      "bount": 5737,
      "ce": 5738,
      "cave": 5739,
      "cuck": 5740,
      "cull": 5741,
      "couch": 5742,
      "crew": 5743,
      "dom": 5744,
      "dir": 5745,
      "dart": 5746,
      "dame": 5747,
      "dang": 5748,
      "dili": 5749,
      "diet": 5750,
      "drows": 5751,
      "dedic": 5752,
      "eve": 5753,
      "ech": 5754,
      "elo": 5755,
      "ebb": 5756,
      "elect": 5757,
      "fow": 5758,
      "fest": 5759,
      "fid": 5760,
      "fate": 5761,
      "fem": 5762,
      "fits": 5763,
      "gle": 5764,
      "gas": 5765,
      "gape": 5766,
      "gulf": 5767,
      "hedge": 5768,
      "jun": 5769,
      "jade": 5770,
      "kern": 5771,
      "lou": 5772,
      "lin": 5773,
      "link": 5774,
      "loose": 5775,
      "lane": 5776,
      "mass": 5777,
      "muff": 5778,
      "miles": 5779,
      "non": 5780,
      "nursed": 5781,
      "nym": 5782,
      "pine": 5783,
      "pate": 5784,
      "pol": 5785,
      "pile": 5786,
      "pull": 5787,
      "pip": 5788,
      "pounds": 5789,
      "pays": 5790,
      "puff": 5791,
      "piled": 5792,
      "perem": 5793,
      "plight": 5794,
      "rab": 5795,
      "raim": 5796,
      "raz": 5797,
      "rites": 5798,
      "rising": 5799,
      "si": 5800,
      "sine": 5801,
      "siege": 5802,
      "tu": 5803,
      "tal": 5804,
      "tink": 5805,
      "tire": 5806,
      "tents": 5807,
      "tainted": 5808,
      "tamed": 5809,
      "vine": 5810,
      "vig": 5811,
      "verd": 5812,
      "vices": 5813,
      "wra": 5814,
      "wester": 5815,
      "##lter": 5816,
      "##liness": 5817,
      "##oking": 5818,
      "##uge": 5819,
      "##uced": 5820,
      "##uits": 5821,
      "##ubs": 5822,
      "##rion": 5823,
      "##rown": 5824,
      "##raint": 5825,
      "##ranch": 5826,
      "##iable": 5827,
      "##iffer": 5828,
      "##sion": 5829,
      "##net": 5830,
      "##nic": 5831,
      "##get": 5832,
      "##gers": 5833,
      "##gage": 5834,
      "##ais": 5835,
      "##acc": 5836,
      "##aeth": 5837,
      "##ta": 5838,
      "##ties": 5839,
      "##ex": 5840,
      "##cra": 5841,
      "##cip": 5842,
      "##cund": 5843,
      "##comes": 5844,
      "##cially": 5845,
      "##cules": 5846,
      "##vation": 5847,
      "##bus": 5848,
      "##bling": 5849,
      "##ples": 5850,
      "##franch": 5851,
      "##kind": 5852,
      "##kens": 5853,
      "##zy": 5854,
      "threes": 5855,
      "thorough": 5856,
      "##erved": 5857,
      "##erog": 5858,
      "##aration": 5859,
      "##arison": 5860,
      "toe": 5861,
      "toss": 5862,
      "token": 5863,
      "tonight": 5864,
      "##isk": 5865,
      "##isome": 5866,
      "##throw": 5867,
      "##ancy": 5868,
      "##inged": 5869,
      "noses": 5870,
      "whet": 5871,
      "beet": 5872,
      "beads": 5873,
      "##strel": 5874,
      "##ediment": 5875,
      "heal": 5876,
      "hect": 5877,
      "ing": 5878,
      "inve": 5879,
      "##owick": 5880,
      "halt": 5881,
      "haunt": 5882,
      "hallow": 5883,
      "##etic": 5884,
      "##etition": 5885,
      "##seth": 5886,
      "shower": 5887,
      "shift": 5888,
      "shamed": 5889,
      "forer": 5890,
      "foret": 5891,
      "forest": 5892,
      "forces": 5893,
      "fornic": 5894,
      "meas": 5895,
      "mellow": 5896,
      "##key": 5897,
      "notes": 5898,
      "notwith": 5899,
      "notorious": 5900,
      "weed": 5901,
      "weal": 5902,
      "stall": 5903,
      "stem": 5904,
      "stub": 5905,
      "##ently": 5906,
      "##entious": 5907,
      "##ado": 5908,
      "##adem": 5909,
      "##adise": 5910,
      "print": 5911,
      "prunes": 5912,
      "priam": 5913,
      "prerog": 5914,
      "aspir": 5915,
      "ascend": 5916,
      "##athers": 5917,
      "##alion": 5918,
      "soar": 5919,
      "solic": 5920,
      "liar": 5921,
      "liqu": 5922,
      "##amer": 5923,
      "##asy": 5924,
      "##allel": 5925,
      "dot": 5926,
      "doves": 5927,
      "doors": 5928,
      "defect": 5929,
      "fruits": 5930,
      "seed": 5931,
      "ang": 5932,
      "rele": 5933,
      "render": 5934,
      "revers": 5935,
      "##racious": 5936,
      "##rails": 5937,
      "##raught": 5938,
      "allies": 5939,
      "##anders": 5940,
      "herbs": 5941,
      "hercules": 5942,
      "##pel": 5943,
      "##pecially": 5944,
      "##vering": 5945,
      "sued": 5946,
      "sung": 5947,
      "sunder": 5948,
      "loins": 5949,
      "male": 5950,
      "magic": 5951,
      "tro": 5952,
      "tried": 5953,
      "trades": 5954,
      "brist": 5955,
      "brass": 5956,
      "brib": 5957,
      "chid": 5958,
      "chap": 5959,
      "chains": 5960,
      "chaf": 5961,
      "chival": 5962,
      "box": 5963,
      "boon": 5964,
      "bolt": 5965,
      "knigh": 5966,
      "##illed": 5967,
      "lech": 5968,
      "lends": 5969,
      "levy": 5970,
      "unman": 5971,
      "unsw": 5972,
      "unple": 5973,
      "ungent": 5974,
      "unrest": 5975,
      "ord": 5976,
      "orph": 5977,
      "##ously": 5978,
      "##feits": 5979,
      "sheet": 5980,
      "shelter": 5981,
      "thereon": 5982,
      "##ums": 5983,
      "##umps": 5984,
      "marr": 5985,
      "marble": 5986,
      "attain": 5987,
      "faction": 5988,
      "conver": 5989,
      "constr": 5990,
      "moan": 5991,
      "duc": 5992,
      "amity": 5993,
      "##aker": 5994,
      "enfranch": 5995,
      "wasp": 5996,
      "howl": 5997,
      "##icial": 5998,
      "sayest": 5999,
      "##emper": 6000,
      "arbit": 6001,
      "##apes": 6002,
      "##apable": 6003,
      "##olar": 6004,
      "clos": 6005,
      "##unch": 6006,
      "pox": 6007,
      "poll": 6008,
      "pocket": 6009,
      "whoever": 6010,
      "using": 6011,
      "knowest": 6012,
      "spear": 6013,
      "warn": 6014,
      "warning": 6015,
      "greece": 6016,
      "worsh": 6017,
      "plan": 6018,
      "plate": 6019,
      "plash": 6020,
      "pledge": 6021,
      "madly": 6022,
      "madman": 6023,
      "musty": 6024,
      "glories": 6025,
      "queens": 6026,
      "sped": 6027,
      "spurn": 6028,
      "spices": 6029,
      "spilt": 6030,
      "spiders": 6031,
      "##ross": 6032,
      "##rovers": 6033,
      "##pper": 6034,
      "##ppet": 6035,
      "graft": 6036,
      "##rib": 6037,
      "##ribe": 6038,
      "##areth": 6039,
      "##ffic": 6040,
      "alto": 6041,
      "aloof": 6042,
      "##fulness": 6043,
      "gentler": 6044,
      "looker": 6045,
      "abst": 6046,
      "abbot": 6047,
      "exh": 6048,
      "excus": 6049,
      "exclaim": 6050,
      "dise": 6051,
      "flame": 6052,
      "flayed": 6053,
      "timeless": 6054,
      "hears": 6055,
      "earldom": 6056,
      "ladyship": 6057,
      "##irect": 6058,
      "awry": 6059,
      "luke": 6060,
      "quake": 6061,
      "quaint": 6062,
      "prays": 6063,
      "strat": 6064,
      "strump": 6065,
      "##elm": 6066,
      "##elor": 6067,
      "##ptory": 6068,
      "crest": 6069,
      "scour": 6070,
      "scru": 6071,
      "scars": 6072,
      "sweets": 6073,
      "erp": 6074,
      "foil": 6075,
      "##quet": 6076,
      "##quent": 6077,
      "##quence": 6078,
      "##quity": 6079,
      "partake": 6080,
      "preced": 6081,
      "caparison": 6082,
      "wrangling": 6083,
      "cob": 6084,
      "coz": 6085,
      "coal": 6086,
      "coals": 6087,
      "headed": 6088,
      "headstr": 6089,
      "controvers": 6090,
      "wayward": 6091,
      "afoot": 6092,
      "slack": 6093,
      "longest": 6094,
      "presc": 6095,
      "replied": 6096,
      "repossess": 6097,
      "repetition": 6098,
      "thresh": 6099,
      "resort": 6100,
      "restored": 6101,
      "restraint": 6102,
      "##ipl": 6103,
      "consort": 6104,
      "consumed": 6105,
      "peaceful": 6106,
      "crowned": 6107,
      "mistaking": 6108,
      "composition": 6109,
      "jocund": 6110,
      "murdering": 6111,
      "follies": 6112,
      "hourly": 6113,
      "curious": 6114,
      "farm": 6115,
      "farthest": 6116,
      "confines": 6117,
      "showers": 6118,
      "higher": 6119,
      "highway": 6120,
      "pardons": 6121,
      "treas": 6122,
      "subm": 6123,
      "subsc": 6124,
      "elsewh": 6125,
      "backward": 6126,
      "banquet": 6127,
      "indiffer": 6128,
      "indirect": 6129,
      "parent": 6130,
      "paradise": 6131,
      "welcomes": 6132,
      "keeping": 6133,
      "hush": 6134,
      "needle": 6135,
      "needless": 6136,
      "appl": 6137,
      "apply": 6138,
      "appoint": 6139,
      "volume": 6140,
      "underne": 6141,
      "undergo": 6142,
      "breathes": 6143,
      "husbands": 6144,
      "fortunate": 6145,
      "tragic": 6146,
      "truer": 6147,
      "worthily": 6148,
      "counted": 6149,
      "impart": 6150,
      "impud": 6151,
      "impression": 6152,
      "impediment": 6153,
      "natures": 6154,
      "royally": 6155,
      "lightly": 6156,
      "lightness": 6157,
      "killed": 6158,
      "misd": 6159,
      "turning": 6160,
      "turned": 6161,
      "device": 6162,
      "obtain": 6163,
      "uncertain": 6164,
      "marrying": 6165,
      "signs": 6166,
      "antic": 6167,
      "dispro": 6168,
      "dispose": 6169,
      "disposed": 6170,
      "witted": 6171,
      "sunshine": 6172,
      "comforts": 6173,
      "comfortable": 6174,
      "doubly": 6175,
      "villany": 6176,
      "sleeps": 6177,
      "sleepy": 6178,
      "value": 6179,
      "attent": 6180,
      "attach": 6181,
      "tax": 6182,
      "instead": 6183,
      "wishing": 6184,
      "##itories": 6185,
      "assault": 6186,
      "daring": 6187,
      "darken": 6188,
      "fighting": 6189,
      "widows": 6190,
      "commanding": 6191,
      "denial": 6192,
      "getting": 6193,
      "prisoners": 6194,
      "suppli": 6195,
      "entire": 6196,
      "entrails": 6197,
      "ribb": 6198,
      "##weigh": 6199,
      "chequ": 6200,
      "promot": 6201,
      "appell": 6202,
      "##enerate": 6203,
      "##umny": 6204,
      "kissing": 6205,
      "sisterhood": 6206,
      "##ilip": 6207,
      "woeful": 6208,
      "discords": 6209,
      "built": 6210,
      "returned": 6211,
      "strait": 6212,
      "caused": 6213,
      "requite": 6214,
      "required": 6215,
      "blessings": 6216,
      "tenderly": 6217,
      "fitted": 6218,
      "nearer": 6219,
      "coldly": 6220,
      "hardy": 6221,
      "deeper": 6222,
      "deeply": 6223,
      "greyh": 6224,
      "footman": 6225,
      "silken": 6226,
      "mete": 6227,
      "plucks": 6228,
      "minstrel": 6229,
      "infir": 6230,
      "infring": 6231,
      "pastime": 6232,
      "quicken": 6233,
      "tribute": 6234,
      "divines": 6235,
      "division": 6236,
      "fasting": 6237,
      "profits": 6238,
      "delivered": 6239,
      "strongly": 6240,
      "inconstant": 6241,
      "incapable": 6242,
      "resolute": 6243,
      "accent": 6244,
      "calais": 6245,
      "calumny": 6246,
      "nobler": 6247,
      "mocking": 6248,
      "mockery": 6249,
      "counsels": 6250,
      "preposter": 6251,
      "biting": 6252,
      "geld": 6253,
      "terrible": 6254,
      "shorten": 6255,
      "stirr": 6256,
      "stirs": 6257,
      "stirring": 6258,
      "harmless": 6259,
      "appeared": 6260,
      "skin": 6261,
      "##upon": 6262,
      "cheerfully": 6263,
      "praised": 6264,
      "actor": 6265,
      "regiment": 6266,
      "direful": 6267,
      "rats": 6268,
      "poisonous": 6269,
      "events": 6270,
      "malign": 6271,
      "malicious": 6272,
      "succor": 6273,
      "embraced": 6274,
      "##gnant": 6275,
      "encourage": 6276,
      "bleeds": 6277,
      "penny": 6278,
      "victorious": 6279,
      "eating": 6280,
      "fills": 6281,
      "opposed": 6282,
      "rebel": 6283,
      "scarlet": 6284,
      "witnesses": 6285,
      "limits": 6286,
      "wisest": 6287,
      "closely": 6288,
      "worshipful": 6289,
      "possessed": 6290,
      "chamberlain": 6291,
      "derived": 6292,
      "hurried": 6293,
      "created": 6294,
      "creatures": 6295,
      "cowardice": 6296,
      "waken": 6297,
      "triumphs": 6298,
      "##heard": 6299,
      "changes": 6300,
      "contrad": 6301,
      "hideous": 6302,
      "torments": 6303,
      "beastly": 6304,
      "governor": 6305,
      "arrest": 6306,
      "famish": 6307,
      "scholar": 6308,
      "##standing": 6309,
      "extremest": 6310,
      "diadem": 6311,
      "##gging": 6312,
      "shrink": 6313,
      "street": 6314,
      "solely": 6315,
      "added": 6316,
      "avouch": 6317,
      "mutiny": 6318,
      "sixth": 6319,
      "lustful": 6320,
      "phoe": 6321,
      "phaeth": 6322,
      "philip": 6323,
      "lodowick": 6324,
      "unfit": 6325,
      "drunkard": 6326,
      "gait": 6327,
      "gaol": 6328,
      "napkin": 6329,
      "rages": 6330,
      "raging": 6331,
      "ragged": 6332,
      "tarqu": 6333,
      "threats": 6334,
      "bodes": 6335,
      "safer": 6336,
      "counterpo": 6337,
      "conditions": 6338,
      "baggage": 6339,
      "butchers": 6340,
      "debase": 6341,
      "argos": 6342,
      "capital": 6343,
      "remedies": 6344,
      "understanding": 6345,
      "persuasion": 6346,
      "scarcely": 6347,
      "mourning": 6348,
      "rocks": 6349,
      "inclination": 6350,
      "unborn": 6351,
      "amazement": 6352,
      "greetings": 6353,
      "demands": 6354,
      "create": 6355,
      "dwells": 6356,
      "faintly": 6357,
      "throats": 6358,
      "degrees": 6359,
      "miseries": 6360,
      "assistance": 6361,
      "utterance": 6362,
      "bait": 6363,
      "feeding": 6364,
      "holid": 6365,
      "owl": 6366,
      "syll": 6367,
      "befal": 6368,
      "befits": 6369,
      "stooping": 6370,
      "fruitful": 6371,
      "necessary": 6372,
      "firmly": 6373,
      "lengthen": 6374,
      "##whelm": 6375,
      "frighted": 6376,
      "importune": 6377,
      "doricles": 6378,
      "fathom": 6379,
      "jealousies": 6380,
      "##actors": 6381,
      "pronounced": 6382,
      "decay": 6383,
      "troublous": 6384,
      "heaviness": 6385,
      "admir": 6386,
      "preserved": 6387,
      "treachery": 6388,
      "delights": 6389,
      "aediles": 6390,
      "mounting": 6391,
      "physician": 6392,
      "rascals": 6393,
      "wonders": 6394,
      "##holds": 6395,
      "beware": 6396,
      "shaped": 6397,
      "rewards": 6398,
      "ambition": 6399,
      "temperance": 6400,
      "baseness": 6401,
      "wales": 6402,
      "weighty": 6403,
      "combat": 6404,
      "produce": 6405,
      "trembles": 6406,
      "penitence": 6407,
      "solemnity": 6408,
      "publicly": 6409,
      "budge": 6410,
      "digest": 6411,
      "millions": 6412,
      "songs": 6413,
      "##govern": 6414,
      "choleric": 6415,
      "wilful": 6416,
      "hazel": 6417,
      "melting": 6418,
      "bondage": 6419,
      "knightly": 6420,
      "antiates": 6421,
      "lungs": 6422,
      "puppet": 6423,
      "testimony": 6424,
      "thorns": 6425,
      "ashore": 6426,
      "chastity": 6427,
      "chastisement": 6428,
      "uneven": 6429,
      "discharged": 6430,
      "correct": 6431,
      "admitted": 6432,
      "beguile": 6433,
      "beguiled": 6434,
      "brawl": 6435,
      "brawling": 6436,
      "apprehension": 6437,
      "witchcra": 6438,
      "inferior": 6439,
      "injuries": 6440,
      "achieved": 6441,
      "circumstances": 6442,
      "function": 6443,
      "issued": 6444,
      "revive": 6445,
      "receives": 6446,
      "relig": 6447,
      "locks": 6448,
      "climb": 6449,
      "posterity": 6450,
      "council": 6451,
      "captive": 6452,
      "reproof": 6453,
      "distressed": 6454,
      "difference": 6455,
      "prodigal": 6456,
      "dainty": 6457,
      "horror": 6458,
      "idly": 6459,
      "wheels": 6460,
      "scolding": 6461,
      "coffin": 6462,
      "transported": 6463,
      "impatience": 6464,
      "impatient": 6465,
      "dragon": 6466,
      "beautiful": 6467,
      "disguised": 6468,
      "homage": 6469,
      "latest": 6470,
      "porter": 6471,
      "painting": 6472,
      "thwack": 6473,
      "haughty": 6474,
      "society": 6475,
      "trimm": 6476,
      "unfeigned": 6477,
      "bestride": 6478,
      "bankrupt": 6479,
      "attorney": 6480,
      "expedition": 6481,
      "insolence": 6482,
      "concluded": 6483,
      "centre": 6484,
      "mongst": 6485,
      "picture": 6486,
      "saucy": 6487,
      "vassal": 6488,
      "whistle": 6489,
      "levied": 6490,
      "lecture": 6491,
      "swoon": 6492,
      "merrily": 6493,
      "imperial": 6494,
      "smiling": 6495,
      "welshmen": 6496,
      "divorce": 6497,
      "skulls": 6498,
      "shriek": 6499,
      "schoolmaster": 6500,
      "immediately": 6501,
      "unlawful": 6502,
      "supreme": 6503,
      "advertised": 6504,
      "reckoning": 6505,
      "cordial": 6506,
      "candle": 6507,
      "especially": 6508,
      "powder": 6509,
      "pupil": 6510,
      "rancour": 6511,
      "sands": 6512,
      "ugly": 6513,
      "waning": 6514,
      "butterf": 6515,
      "dolour": 6516,
      "convenient": 6517,
      "canopy": 6518,
      "plaints": 6519,
      "disobed": 6520,
      "merriment": 6521,
      "scurvy": 6522,
      "nightingale": 6523,
      "harlot": 6524,
      "territories": 6525,
      "rebuke": 6526,
      "medicine": 6527,
      "puissant": 6528,
      "reprieve": 6529,
      "acknowledge": 6530,
      "pestilence": 6531,
      "bachelor": 6532,
      "cuckold": 6533,
      "dangers": 6534,
      "festival": 6535,
      "female": 6536,
      "louder": 6537,
      "nymph": 6538,
      "peremptory": 6539,
      "raiment": 6540,
      "sinew": 6541,
      "vineyard": 6542,
      "western": 6543,
      "hector": 6544,
      "notwithstanding": 6545,
      "prerogative": 6546,
      "aspiring": 6547,
      "solicit": 6548,
      "bribe": 6549,
      "knighthood": 6550,
      "altogether": 6551,
      "strumpet": 6552,
      "precedent": 6553,
      "headstrong": 6554,
      "controversy": 6555,
      "elsewhere": 6556,
      "underneath": 6557,
      "preposterous": 6558,
      "phoebus": 6559,
      "phaethon": 6560,
      "witchcraft": 6561,
      "aust": 6562,
      "aery": 6563,
      "aqu": 6564,
      "bal": 6565,
      "bust": 6566,
      "bau": 6567,
      "bind": 6568,
      "bide": 6569,
      "batter": 6570,
      "bier": 6571,
      "bash": 6572,
      "bale": 6573,
      "bills": 6574,
      "borough": 6575,
      "bunch": 6576,
      "ced": 6577,
      "cas": 6578,
      "cels": 6579,
      "cats": 6580,
      "cuff": 6581,
      "cool": 6582,
      "certaint": 6583,
      "dy": 6584,
      "dight": 6585,
      "dau": 6586,
      "dive": 6587,
      "dick": 6588,
      "dial": 6589,
      "dally": 6590,
      "dastard": 6591,
      "dances": 6592,
      "duteous": 6593,
      "eg": 6594,
      "ew": 6595,
      "eur": 6596,
      "easter": 6597,
      "egg": 6598,
      "fen": 6599,
      "fed": 6600,
      "fut": 6601,
      "fence": 6602,
      "foun": 6603,
      "fester": 6604,
      "file": 6605,
      "fanc": 6606,
      "fert": 6607,
      "fickle": 6608,
      "gay": 6609,
      "gear": 6610,
      "gild": 6611,
      "gird": 6612,
      "gorge": 6613,
      "ginger": 6614,
      "gilt": 6615,
      "hound": 6616,
      "hint": 6617,
      "hounds": 6618,
      "hides": 6619,
      "hoop": 6620,
      "hills": 6621,
      "ib": 6622,
      "jar": 6623,
      "jump": 6624,
      "james": 6625,
      "keen": 6626,
      "kenn": 6627,
      "kitch": 6628,
      "ly": 6629,
      "lain": 6630,
      "lame": 6631,
      "lass": 6632,
      "laughter": 6633,
      "lasc": 6634,
      "litter": 6635,
      "ming": 6636,
      "math": 6637,
      "mort": 6638,
      "mud": 6639,
      "mute": 6640,
      "muse": 6641,
      "nin": 6642,
      "nic": 6643,
      "nun": 6644,
      "nurs": 6645,
      "nerves": 6646,
      "niece": 6647,
      "om": 6648,
      "ost": 6649,
      "oce": 6650,
      "pir": 6651,
      "pul": 6652,
      "pens": 6653,
      "pith": 6654,
      "pins": 6655,
      "pines": 6656,
      "row": 6657,
      "roo": 6658,
      "rent": 6659,
      "rus": 6660,
      "ram": 6661,
      "rood": 6662,
      "rice": 6663,
      "rings": 6664,
      "rates": 6665,
      "rapt": 6666,
      "rud": 6667,
      "raw": 6668,
      "rhy": 6669,
      "raze": 6670,
      "surn": 6671,
      "ti": 6672,
      "tum": 6673,
      "tart": 6674,
      "tab": 6675,
      "tick": 6676,
      "tatter": 6677,
      "taunt": 6678,
      "tunes": 6679,
      "tides": 6680,
      "tales": 6681,
      "uly": 6682,
      "vest": 6683,
      "vap": 6684,
      "vail": 6685,
      "vita": 6686,
      "yellow": 6687,
      "##lest": 6688,
      "##lore": 6689,
      "##lant": 6690,
      "##loy": 6691,
      "##lorn": 6692,
      "##lph": 6693,
      "##lets": 6694,
      "##oa": 6695,
      "##oz": 6696,
      "##ois": 6697,
      "##oided": 6698,
      "##rates": 6699,
      "##ipe": 6700,
      "##iction": 6701,
      "##iquity": 6702,
      "##sia": 6703,
      "##sby": 6704,
      "##hill": 6705,
      "##gom": 6706,
      "##gain": 6707,
      "##gress": 6708,
      "##gues": 6709,
      "##acious": 6710,
      "##aced": 6711,
      "##avery": 6712,
      "##ainder": 6713,
      "##test": 6714,
      "##tling": 6715,
      "##tinent": 6716,
      "##eath": 6717,
      "##eck": 6718,
      "##eks": 6719,
      "##eav": 6720,
      "##eathe": 6721,
      "##dur": 6722,
      "##dge": 6723,
      "##dling": 6724,
      "##dler": 6725,
      "##dlow": 6726,
      "##cet": 6727,
      "##cock": 6728,
      "##ckey": 6729,
      "##vion": 6730,
      "##vill": 6731,
      "##vil": 6732,
      "##vided": 6733,
      "##min": 6734,
      "##mand": 6735,
      "##mary": 6736,
      "##maid": 6737,
      "##minate": 6738,
      "##bon": 6739,
      "##boy": 6740,
      "##body": 6741,
      "##por": 6742,
      "##ped": 6743,
      "##pse": 6744,
      "##pter": 6745,
      "##fellow": 6746,
      "##worth": 6747,
      "##jud": 6748,
      "thrift": 6749,
      "##eres": 6750,
      "##erman": 6751,
      "##nders": 6752,
      "##ino": 6753,
      "##inance": 6754,
      "##inite": 6755,
      "##inty": 6756,
      "##inable": 6757,
      "##ato": 6758,
      "##aty": 6759,
      "##atory": 6760,
      "##atitude": 6761,
      "##atiate": 6762,
      "##arated": 6763,
      "##ese": 6764,
      "##lly": 6765,
      "##thren": 6766,
      "nov": 6767,
      "whoop": 6768,
      "wheres": 6769,
      "##oming": 6770,
      "##rep": 6771,
      "beards": 6772,
      "##stood": 6773,
      "iniquity": 6774,
      "##chard": 6775,
      "hav": 6776,
      "ham": 6777,
      "hab": 6778,
      "haw": 6779,
      "haven": 6780,
      "haun": 6781,
      "##ete": 6782,
      "##eteen": 6783,
      "##sec": 6784,
      "##uto": 6785,
      "sha": 6786,
      "shock": 6787,
      "shipp": 6788,
      "shouts": 6789,
      "shores": 6790,
      "forew": 6791,
      "forms": 6792,
      "forrest": 6793,
      "forlorn": 6794,
      "##lebr": 6795,
      "##lehill": 6796,
      "##uring": 6797,
      "##urous": 6798,
      "##urity": 6799,
      "##urbs": 6800,
      "##itan": 6801,
      "##ital": 6802,
      "##imer": 6803,
      "##iminal": 6804,
      "##oothing": 6805,
      "##ools": 6806,
      "web": 6807,
      "sty": 6808,
      "stage": 6809,
      "stuck": 6810,
      "stint": 6811,
      "stew": 6812,
      "stif": 6813,
      "steter": 6814,
      "stony": 6815,
      "starts": 6816,
      "##using": 6817,
      "##usale": 6818,
      "##usual": 6819,
      "##uspic": 6820,
      "##adv": 6821,
      "pry": 6822,
      "##iot": 6823,
      "##iod": 6824,
      "sober": 6825,
      "solace": 6826,
      "##esters": 6827,
      "##idge": 6828,
      "##arded": 6829,
      "liver": 6830,
      "liars": 6831,
      "##asite": 6832,
      "##asph": 6833,
      "doit": 6834,
      "doings": 6835,
      "doting": 6836,
      "sew": 6837,
      "sex": 6838,
      "sear": 6839,
      "selves": 6840,
      "whatever": 6841,
      "angu": 6842,
      "reh": 6843,
      "revell": 6844,
      "##geon": 6845,
      "##geia": 6846,
      "##raign": 6847,
      "##races": 6848,
      "##lies": 6849,
      "##lices": 6850,
      "##livion": 6851,
      "goest": 6852,
      "allay": 6853,
      "herbert": 6854,
      "##pell": 6855,
      "##peak": 6856,
      "sues": 6857,
      "sulph": 6858,
      "##terate": 6859,
      "mab": 6860,
      "map": 6861,
      "##oury": 6862,
      "trad": 6863,
      "trod": 6864,
      "bran": 6865,
      "brine": 6866,
      "brittle": 6867,
      "##ellows": 6868,
      "chain": 6869,
      "choke": 6870,
      "chides": 6871,
      "chert": 6872,
      "chape": 6873,
      "chaff": 6874,
      "##ulation": 6875,
      "bonds": 6876,
      "boding": 6877,
      "goodman": 6878,
      "knell": 6879,
      "knack": 6880,
      "knavery": 6881,
      "compell": 6882,
      "upper": 6883,
      "leth": 6884,
      "leic": 6885,
      "leather": 6886,
      "unpe": 6887,
      "unity": 6888,
      "unqu": 6889,
      "unlo": 6890,
      "unsc": 6891,
      "unaw": 6892,
      "unav": 6893,
      "univers": 6894,
      "unacc": 6895,
      "ungovern": 6896,
      "unusual": 6897,
      "##usters": 6898,
      "ordain": 6899,
      "orchard": 6900,
      "##oused": 6901,
      "##feminate": 6902,
      "sheath": 6903,
      "sheets": 6904,
      "therewith": 6905,
      "##umes": 6906,
      "mart": 6907,
      "atone": 6908,
      "faster": 6909,
      "fails": 6910,
      "fabric": 6911,
      "cony": 6912,
      "convers": 6913,
      "convent": 6914,
      "mot": 6915,
      "moans": 6916,
      "molehill": 6917,
      "dun": 6918,
      "dug": 6919,
      "manly": 6920,
      "manacles": 6921,
      "mankind": 6922,
      "##akest": 6923,
      "ensue": 6924,
      "enroll": 6925,
      "prover": 6926,
      "proffer": 6927,
      "##asted": 6928,
      "bloss": 6929,
      "blots": 6930,
      "blasph": 6931,
      "cance": 6932,
      "howe": 6933,
      "##icing": 6934,
      "##icide": 6935,
      "##ablish": 6936,
      "##vener": 6937,
      "##eming": 6938,
      "##ematic": 6939,
      "swim": 6940,
      "swine": 6941,
      "swol": 6942,
      "swif": 6943,
      "swarm": 6944,
      "clubs": 6945,
      "##uned": 6946,
      "grove": 6947,
      "grub": 6948,
      "gramer": 6949,
      "potion": 6950,
      "richly": 6951,
      "usage": 6952,
      "spell": 6953,
      "ware": 6954,
      "wary": 6955,
      "greets": 6956,
      "whereby": 6957,
      "wherewith": 6958,
      "whereupon": 6959,
      "plent": 6960,
      "plough": 6961,
      "agony": 6962,
      "##ists": 6963,
      "##igation": 6964,
      "glister": 6965,
      "glove": 6966,
      "space": 6967,
      "spies": 6968,
      "##roth": 6969,
      "twig": 6970,
      "somebody": 6971,
      "edict": 6972,
      "saving": 6973,
      "sails": 6974,
      "##ription": 6975,
      "timorous": 6976,
      "outst": 6977,
      "gentry": 6978,
      "##ounted": 6979,
      "abate": 6980,
      "abides": 6981,
      "abod": 6982,
      "ability": 6983,
      "abuses": 6984,
      "daylight": 6985,
      "external": 6986,
      "disb": 6987,
      "disper": 6988,
      "dislike": 6989,
      "disloy": 6990,
      "tellus": 6991,
      "corner": 6992,
      "corners": 6993,
      "peck": 6994,
      "peasant": 6995,
      "flag": 6996,
      "flaw": 6997,
      "flinty": 6998,
      "##agate": 6999,
      "hearth": 7000,
      "##avel": 7001,
      "thinkest": 7002,
      "pett": 7003,
      "breach": 7004,
      "breech": 7005,
      "brethren": 7006,
      "awe": 7007,
      "awful": 7008,
      "##bering": 7009,
      "desir": 7010,
      "desol": 7011,
      "##izes": 7012,
      "perch": 7013,
      "perused": 7014,
      "peradventure": 7015,
      "period": 7016,
      "##agems": 7017,
      "ludlow": 7018,
      "##iously": 7019,
      "##tock": 7020,
      "jule": 7021,
      "##peror": 7022,
      "##peration": 7023,
      "articles": 7024,
      "article": 7025,
      "##uckle": 7026,
      "fearless": 7027,
      "adam": 7028,
      "adorn": 7029,
      "adder": 7030,
      "calling": 7031,
      "fairies": 7032,
      "betroth": 7033,
      "string": 7034,
      "strain": 7035,
      "stride": 7036,
      "security": 7037,
      "greatly": 7038,
      "##anging": 7039,
      "crad": 7040,
      "crick": 7041,
      "crimes": 7042,
      "criminal": 7043,
      "commune": 7044,
      "commod": 7045,
      "lazy": 7046,
      "lackey": 7047,
      "scal": 7048,
      "scra": 7049,
      "scri": 7050,
      "scare": 7051,
      "scouts": 7052,
      "scaped": 7053,
      "sweeten": 7054,
      "ersh": 7055,
      "erwhelm": 7056,
      "foaming": 7057,
      "##quish": 7058,
      "cannib": 7059,
      "partial": 7060,
      "pred": 7061,
      "precise": 7062,
      "pregnant": 7063,
      "handle": 7064,
      "handker": 7065,
      "capable": 7066,
      "wrench": 7067,
      "cog": 7068,
      "coin": 7069,
      "cove": 7070,
      "coats": 7071,
      "##derate": 7072,
      "julius": 7073,
      "##assad": 7074,
      "contem": 7075,
      "remn": 7076,
      "remiss": 7077,
      "remote": 7078,
      "slide": 7079,
      "poorest": 7080,
      "##score": 7081,
      "begging": 7082,
      "longing": 7083,
      "repaid": 7084,
      "vial": 7085,
      "mercury": 7086,
      "##phos": 7087,
      "mightily": 7088,
      "lively": 7089,
      "fooling": 7090,
      "footing": 7091,
      "##sses": 7092,
      "buckle": 7093,
      "resp": 7094,
      "residence": 7095,
      "reserved": 7096,
      "resteth": 7097,
      "consume": 7098,
      "conserves": 7099,
      "drive": 7100,
      "drinks": 7101,
      "harms": 7102,
      "mistook": 7103,
      "complices": 7104,
      "besiege": 7105,
      "provo": 7106,
      "provoke": 7107,
      "##endom": 7108,
      "slender": 7109,
      "##ivity": 7110,
      "##ivious": 7111,
      "courses": 7112,
      "purged": 7113,
      "##ieldy": 7114,
      "helen": 7115,
      "helms": 7116,
      "curbs": 7117,
      "confounds": 7118,
      "confined": 7119,
      "smack": 7120,
      "smiled": 7121,
      "smelt": 7122,
      "smoking": 7123,
      "guild": 7124,
      "highest": 7125,
      "treble": 7126,
      "treaty": 7127,
      "suborn": 7128,
      "suburbs": 7129,
      "charms": 7130,
      "charters": 7131,
      "charitable": 7132,
      "rightly": 7133,
      "brand": 7134,
      "brandon": 7135,
      "bragg": 7136,
      "brazen": 7137,
      "tongueless": 7138,
      "emulation": 7139,
      "emperor": 7140,
      "park": 7141,
      "parch": 7142,
      "parle": 7143,
      "parlous": 7144,
      "parasite": 7145,
      "welkin": 7146,
      "welcom": 7147,
      "senis": 7148,
      "seemed": 7149,
      "seemeth": 7150,
      "needy": 7151,
      "endow": 7152,
      "endeav": 7153,
      "##asonable": 7154,
      "hopeless": 7155,
      "busied": 7156,
      "bringing": 7157,
      "breaths": 7158,
      "##oubt": 7159,
      "##oubted": 7160,
      "fortnight": 7161,
      "finding": 7162,
      "traged": 7163,
      "travel": 7164,
      "traffic": 7165,
      "##retion": 7166,
      "##retation": 7167,
      "justly": 7168,
      "justify": 7169,
      "happen": 7170,
      "trudge": 7171,
      "worthier": 7172,
      "worthiest": 7173,
      "teeming": 7174,
      "##ected": 7175,
      "impose": 7176,
      "impute": 7177,
      "imposition": 7178,
      "implore": 7179,
      "yew": 7180,
      "handsome": 7181,
      "helping": 7182,
      "road": 7183,
      "rope": 7184,
      "rogues": 7185,
      "overthrow": 7186,
      "overheard": 7187,
      "passes": 7188,
      "pleaseth": 7189,
      "carn": 7190,
      "carrion": 7191,
      "kills": 7192,
      "devised": 7193,
      "giant": 7194,
      "obdur": 7195,
      "oblivion": 7196,
      "shameless": 7197,
      "engross": 7198,
      "wrongfully": 7199,
      "fees": 7200,
      "signories": 7201,
      "lesson": 7202,
      "dispute": 7203,
      "eyeb": 7204,
      "witty": 7205,
      "player": 7206,
      "players": 7207,
      "doublet": 7208,
      "talked": 7209,
      "threefold": 7210,
      "advant": 7211,
      "villan": 7212,
      "humane": 7213,
      "montgom": 7214,
      "depth": 7215,
      "deposing": 7216,
      "womanish": 7217,
      "valent": 7218,
      "instance": 7219,
      "instinct": 7220,
      "wishes": 7221,
      "assay": 7222,
      "deserving": 7223,
      "deserts": 7224,
      "widower": 7225,
      "commandment": 7226,
      "countryman": 7227,
      "reasonable": 7228,
      "supple": 7229,
      "swearing": 7230,
      "shepherds": 7231,
      "doubted": 7232,
      "doubtless": 7233,
      "cheers": 7234,
      "sending": 7235,
      "message": 7236,
      "enters": 7237,
      "entering": 7238,
      "enterpr": 7239,
      "watching": 7240,
      "watchful": 7241,
      "discred": 7242,
      "discours": 7243,
      "discreet": 7244,
      "discipl": 7245,
      "discretion": 7246,
      "bug": 7247,
      "bub": 7248,
      "crab": 7249,
      "temperate": 7250,
      "##ecies": 7251,
      "purposes": 7252,
      "returns": 7253,
      "throughly": 7254,
      "caus": 7255,
      "sinc": 7256,
      "requital": 7257,
      "remembering": 7258,
      "remembered": 7259,
      "burial": 7260,
      "wearing": 7261,
      "fitter": 7262,
      "fitting": 7263,
      "touches": 7264,
      "toucheth": 7265,
      "nearest": 7266,
      "colder": 7267,
      "harder": 7268,
      "sainted": 7269,
      "winding": 7270,
      "soonest": 7271,
      "warrants": 7272,
      "fiends": 7273,
      "mirror": 7274,
      "untainted": 7275,
      "plucked": 7276,
      "titles": 7277,
      "bargain": 7278,
      "bolder": 7279,
      "strangely": 7280,
      "influ": 7281,
      "infamy": 7282,
      "infancy": 7283,
      "infinite": 7284,
      "rub": 7285,
      "visor": 7286,
      "bonny": 7287,
      "bonnet": 7288,
      "hunting": 7289,
      "wooers": 7290,
      "opening": 7291,
      "profound": 7292,
      "desired": 7293,
      "delivery": 7294,
      "deliverance": 7295,
      "entreated": 7296,
      "##ixture": 7297,
      "bats": 7298,
      "dishes": 7299,
      "surm": 7300,
      "surly": 7301,
      "survey": 7302,
      "incur": 7303,
      "incense": 7304,
      "asked": 7305,
      "leader": 7306,
      "execut": 7307,
      "quarre": 7308,
      "quarters": 7309,
      "speedily": 7310,
      "officious": 7311,
      "cleave": 7312,
      "cleft": 7313,
      "calf": 7314,
      "casting": 7315,
      "posts": 7316,
      "soften": 7317,
      "changeling": 7318,
      "flatterer": 7319,
      "strengthen": 7320,
      "preparation": 7321,
      "bites": 7322,
      "distinct": 7323,
      "distemper": 7324,
      "distrib": 7325,
      "wondering": 7326,
      "##cession": 7327,
      "stirru": 7328,
      "pleasures": 7329,
      "appearing": 7330,
      "skins": 7331,
      "cheerful": 7332,
      "sickly": 7333,
      "wasted": 7334,
      "ordering": 7335,
      "orderly": 7336,
      "acting": 7337,
      "dropp": 7338,
      "garter": 7339,
      "garment": 7340,
      "garlic": 7341,
      "region": 7342,
      "regia": 7343,
      "regreet": 7344,
      "clouded": 7345,
      "cropp": 7346,
      "crosby": 7347,
      "vehem": 7348,
      "verge": 7349,
      "verity": 7350,
      "usurer": 7351,
      "usurps": 7352,
      "sprites": 7353,
      "expost": 7354,
      "evident": 7355,
      "interest": 7356,
      "intercept": 7357,
      "intercession": 7358,
      "favourable": 7359,
      "consuls": 7360,
      "moveables": 7361,
      "proceeding": 7362,
      "speeches": 7363,
      "speechless": 7364,
      "consented": 7365,
      "embraces": 7366,
      "waving": 7367,
      "waft": 7368,
      "liberties": 7369,
      "broach": 7370,
      "broils": 7371,
      "briefly": 7372,
      "chron": 7373,
      "encomp": 7374,
      "beginning": 7375,
      "feasting": 7376,
      "bawdy": 7377,
      "establish": 7378,
      "mortality": 7379,
      "penury": 7380,
      "violate": 7381,
      "frowning": 7382,
      "gotten": 7383,
      "respects": 7384,
      "visiting": 7385,
      "filling": 7386,
      "gallop": 7387,
      "gallows": 7388,
      "lamentations": 7389,
      "oppose": 7390,
      "complete": 7391,
      "limb": 7392,
      "lamp": 7393,
      "lammas": 7394,
      "defiance": 7395,
      "prote": 7396,
      "beggary": 7397,
      "beggarly": 7398,
      "successful": 7399,
      "christendom": 7400,
      "fliers": 7401,
      "pals": 7402,
      "fresher": 7403,
      "freshest": 7404,
      "unwill": 7405,
      "unwieldy": 7406,
      "spoils": 7407,
      "laboured": 7408,
      "slanders": 7409,
      "urging": 7410,
      "##anched": 7411,
      "patiently": 7412,
      "darkly": 7413,
      "proclaimed": 7414,
      "lacks": 7415,
      "susan": 7416,
      "control": 7417,
      "teaching": 7418,
      "forbids": 7419,
      "forbidden": 7420,
      "simois": 7421,
      "walking": 7422,
      "injured": 7423,
      "staring": 7424,
      "starved": 7425,
      "listen": 7426,
      "painful": 7427,
      "wildly": 7428,
      "refuge": 7429,
      "enjoin": 7430,
      "instructions": 7431,
      "births": 7432,
      "divers": 7433,
      "effeminate": 7434,
      "girls": 7435,
      "meditation": 7436,
      "##ggard": 7437,
      "offenders": 7438,
      "streak": 7439,
      "feeble": 7440,
      "mutually": 7441,
      "mutinies": 7442,
      "dooms": 7443,
      "prophecies": 7444,
      "continued": 7445,
      "purses": 7446,
      "pursues": 7447,
      "englishman": 7448,
      "unfurnish": 7449,
      "swiftly": 7450,
      "hoping": 7451,
      "hoped": 7452,
      "drowning": 7453,
      "enjoys": 7454,
      "bastardy": 7455,
      "mantle": 7456,
      "ragoz": 7457,
      "salute": 7458,
      "westmin": 7459,
      "##avish": 7460,
      "severity": 7461,
      "desperately": 7462,
      "countermand": 7463,
      "authorities": 7464,
      "effects": 7465,
      "elders": 7466,
      "##soe": 7467,
      "stealing": 7468,
      "delphos": 7469,
      "argues": 7470,
      "argument": 7471,
      "arguments": 7472,
      "considering": 7473,
      "persuaded": 7474,
      "persuades": 7475,
      "wretchedness": 7476,
      "customary": 7477,
      "courageous": 7478,
      "irish": 7479,
      "wailing": 7480,
      "##stantial": 7481,
      "deceased": 7482,
      "amazon": 7483,
      "benefactors": 7484,
      "creation": 7485,
      "dwelling": 7486,
      "proofs": 7487,
      "degenerate": 7488,
      "plots": 7489,
      "plotted": 7490,
      "excels": 7491,
      "profession": 7492,
      "privately": 7493,
      "symp": 7494,
      "wagon": 7495,
      "dealing": 7496,
      "allowing": 7497,
      "necessities": 7498,
      "grossly": 7499,
      "sailors": 7500,
      "prevails": 7501,
      "directly": 7502,
      "embracements": 7503,
      "aches": 7504,
      "lengthens": 7505,
      "shuts": 7506,
      "forsook": 7507,
      "presses": 7508,
      "discovery": 7509,
      "approaches": 7510,
      "innocents": 7511,
      "punishment": 7512,
      "election": 7513,
      "elements": 7514,
      "numbering": 7515,
      "stole": 7516,
      "decre": 7517,
      "decree": 7518,
      "decrees": 7519,
      "troubles": 7520,
      "clothe": 7521,
      "heavily": 7522,
      "ballads": 7523,
      "detested": 7524,
      "fishes": 7525,
      "mounted": 7526,
      "physicians": 7527,
      "bewray": 7528,
      "bewitch": 7529,
      "shapen": 7530,
      "mended": 7531,
      "pricks": 7532,
      "ambush": 7533,
      "ambassad": 7534,
      "petitions": 7535,
      "conspiracy": 7536,
      "apparell": 7537,
      "methoughts": 7538,
      "vexation": 7539,
      "expressly": 7540,
      "stabbed": 7541,
      "basil": 7542,
      "bandy": 7543,
      "censured": 7544,
      "fashions": 7545,
      "jacks": 7546,
      "lineal": 7547,
      "lineaments": 7548,
      "ports": 7549,
      "portion": 7550,
      "vanish": 7551,
      "vanquish": 7552,
      "walks": 7553,
      "leanness": 7554,
      "enforcement": 7555,
      "placed": 7556,
      "dissentious": 7557,
      "affected": 7558,
      "accusations": 7559,
      "purchased": 7560,
      "digress": 7561,
      "jewels": 7562,
      "rosemary": 7563,
      "wealthy": 7564,
      "separated": 7565,
      "alteration": 7566,
      "maidenhead": 7567,
      "shunn": 7568,
      "melted": 7569,
      "relation": 7570,
      "blocks": 7571,
      "clamorous": 7572,
      "quality": 7573,
      "qualities": 7574,
      "qualify": 7575,
      "prefix": 7576,
      "rescued": 7577,
      "companions": 7578,
      "advancement": 7579,
      "waiting": 7580,
      "acquaintance": 7581,
      "morsel": 7582,
      "thorny": 7583,
      "unjustly": 7584,
      "manifested": 7585,
      "henceforward": 7586,
      "jointure": 7587,
      "accompany": 7588,
      "helmets": 7589,
      "robbers": 7590,
      "summers": 7591,
      "torches": 7592,
      "neglected": 7593,
      "ceremony": 7594,
      "dimm": 7595,
      "turtle": 7596,
      "turks": 7597,
      "##resseth": 7598,
      "issues": 7599,
      "sticks": 7600,
      "revoke": 7601,
      "receipt": 7602,
      "reckless": 7603,
      "relieve": 7604,
      "ensuing": 7605,
      "posterns": 7606,
      "examine": 7607,
      "floods": 7608,
      "resisted": 7609,
      "complexions": 7610,
      "displeased": 7611,
      "reconciled": 7612,
      "complaints": 7613,
      "belongs": 7614,
      "prodigy": 7615,
      "driven": 7616,
      "horrible": 7617,
      "lurk": 7618,
      "lurking": 7619,
      "tending": 7620,
      "ingrateful": 7621,
      "ingratitude": 7622,
      "studies": 7623,
      "studied": 7624,
      "anchors": 7625,
      "mariner": 7626,
      "factious": 7627,
      "gratis": 7628,
      "spectators": 7629,
      "spectacle": 7630,
      "agreement": 7631,
      "coffers": 7632,
      "transform": 7633,
      "transport": 7634,
      "subdue": 7635,
      "subdued": 7636,
      "beauties": 7637,
      "fifty": 7638,
      "innocency": 7639,
      "disguise": 7640,
      "gazed": 7641,
      "homicide": 7642,
      "hatches": 7643,
      "latin": 7644,
      "nettle": 7645,
      "ripen": 7646,
      "##blance": 7647,
      "thwart": 7648,
      "toys": 7649,
      "whipped": 7650,
      "stafford": 7651,
      "trencher": 7652,
      "trenches": 7653,
      "unsheathe": 7654,
      "amended": 7655,
      "blasts": 7656,
      "exceeds": 7657,
      "drooping": 7658,
      "audience": 7659,
      "devouring": 7660,
      "attorneys": 7661,
      "affrighted": 7662,
      "buzzard": 7663,
      "insolent": 7664,
      "sacrifice": 7665,
      "thirsty": 7666,
      "cardinal": 7667,
      "cushion": 7668,
      "cushions": 7669,
      "finish": 7670,
      "fretting": 7671,
      "gnaw": 7672,
      "gamut": 7673,
      "masqu": 7674,
      "masks": 7675,
      "pikes": 7676,
      "rarest": 7677,
      "rigour": 7678,
      "session": 7679,
      "shrug": 7680,
      "stumbled": 7681,
      "deformity": 7682,
      "annoy": 7683,
      "gossips": 7684,
      "suggest": 7685,
      "unthrift": 7686,
      "unlikely": 7687,
      "clerk": 7688,
      "clergy": 7689,
      "spotted": 7690,
      "abundant": 7691,
      "abundance": 7692,
      "disinherit": 7693,
      "disinherited": 7694,
      "adulteress": 7695,
      "crutches": 7696,
      "afric": 7697,
      "afresh": 7698,
      "resemblance": 7699,
      "parcel": 7700,
      "obsequies": 7701,
      "stripes": 7702,
      "detestable": 7703,
      "fantastic": 7704,
      "fantastical": 7705,
      "bulk": 7706,
      "filthy": 7707,
      "jerusale": 7708,
      "rheum": 7709,
      "tumbling": 7710,
      "yesternight": 7711,
      "inhab": 7712,
      "invention": 7713,
      "shamest": 7714,
      "stinking": 7715,
      "doleful": 7716,
      "magistrate": 7717,
      "marquess": 7718,
      "mangled": 7719,
      "arrival": 7720,
      "experienced": 7721,
      "exactly": 7722,
      "everlasting": 7723,
      "perfume": 7724,
      "adopted": 7725,
      "reproach": 7726,
      "confederate": 7727,
      "april": 7728,
      "afterwards": 7729,
      "obscured": 7730,
      "barbar": 7731,
      "surprised": 7732,
      "interpretation": 7733,
      "ancestors": 7734,
      "champion": 7735,
      "insinuate": 7736,
      "environed": 7737,
      "unprovided": 7738,
      "creeping": 7739,
      "unluckily": 7740,
      "negligent": 7741,
      "sparkling": 7742,
      "dissembling": 7743,
      "inheritance": 7744,
      "assembly": 7745,
      "miscarried": 7746,
      "momentary": 7747,
      "celebr": 7748,
      "diligence": 7749,
      "drowsy": 7750,
      "echo": 7751,
      "eloquence": 7752,
      "elected": 7753,
      "fowl": 7754,
      "juno": 7755,
      "linen": 7756,
      "rabble": 7757,
      "razed": 7758,
      "sigeia": 7759,
      "tinker": 7760,
      "vigour": 7761,
      "verdict": 7762,
      "beetle": 7763,
      "inveterate": 7764,
      "hallowmas": 7765,
      "forerun": 7766,
      "foretell": 7767,
      "fornication": 7768,
      "stubborn": 7769,
      "priami": 7770,
      "bristol": 7771,
      "chafed": 7772,
      "chivalry": 7773,
      "lechery": 7774,
      "unpleasing": 7775,
      "ungentle": 7776,
      "ordinance": 7777,
      "orphans": 7778,
      "ducats": 7779,
      "worships": 7780,
      "planet": 7781,
      "plashy": 7782,
      "exclaims": 7783,
      "diseases": 7784,
      "stratagems": 7785,
      "scourge": 7786,
      "cobham": 7787,
      "threshold": 7788,
      "submission": 7789,
      "subscribe": 7790,
      "indifferent": 7791,
      "applause": 7792,
      "suppliant": 7793,
      "appellant": 7794,
      "minstrels": 7795,
      "infirmity": 7796,
      "infringe": 7797,
      "malignant": 7798,
      "tarquin": 7799,
      "argosy": 7800,
      "butterfly": 7801,
      "aqua": 7802,
      "bustle": 7803,
      "bauble": 7804,
      "battery": 7805,
      "bashful": 7806,
      "celsa": 7807,
      "dyed": 7808,
      "dighton": 7809,
      "europe": 7810,
      "future": 7811,
      "fountain": 7812,
      "fancies": 7813,
      "ibat": 7814,
      "kennel": 7815,
      "lascivious": 7816,
      "mathematic": 7817,
      "mortimer": 7818,
      "muddy": 7819,
      "nineteen": 7820,
      "nuns": 7821,
      "ominous": 7822,
      "russia": 7823,
      "rhyme": 7824,
      "surname": 7825,
      "tiber": 7826,
      "tumult": 7827,
      "ulysses": 7828,
      "vitae": 7829,
      "##ville": 7830,
      "forewarn": 7831,
      "steterat": 7832,
      "##uspicious": 7833,
      "##estershire": 7834,
      "anguish": 7835,
      "chertsey": 7836,
      "unawares": 7837,
      "unavoided": 7838,
      "unaccustom": 7839,
      "blasphem": 7840,
      "swoln": 7841,
      "swifter": 7842,
      "disperse": 7843,
      "disloyal": 7844,
      "commodity": 7845,
      "obdurate": 7846,
      "montgomery": 7847,
      "enterprise": 7848,
      "distinctly": 7849,
      "ragozine": 7850,
      "westminster": 7851,
      "sympath": 7852,
      "jerusalem": 7853,
      "mathematics": 7854,
      "ath": 7855,
      "alex": 7856,
      "auspicious": 7857,
      "bi": 7858,
      "bath": 7859,
      "bum": 7860,
      "bough": 7861,
      "bower": 7862,
      "bull": 7863,
      "biss": 7864,
      "bits": 7865,
      "bounds": 7866,
      "baked": 7867,
      "bourn": 7868,
      "cu": 7869,
      "ci": 7870,
      "cic": 7871,
      "coy": 7872,
      "cel": 7873,
      "cable": 7874,
      "cret": 7875,
      "cured": 7876,
      "cater": 7877,
      "cakes": 7878,
      "cote": 7879,
      "cases": 7880,
      "dall": 7881,
      "dul": 7882,
      "dough": 7883,
      "dates": 7884,
      "dista": 7885,
      "daunt": 7886,
      "dump": 7887,
      "danced": 7888,
      "darts": 7889,
      "dumps": 7890,
      "eth": 7891,
      "eff": 7892,
      "ess": 7893,
      "eaves": 7894,
      "esp": 7895,
      "etern": 7896,
      "epit": 7897,
      "fer": 7898,
      "fay": 7899,
      "fust": 7900,
      "furn": 7901,
      "fel": 7902,
      "fates": 7903,
      "fade": 7904,
      "fined": 7905,
      "fount": 7906,
      "fuel": 7907,
      "fume": 7908,
      "faded": 7909,
      "gy": 7910,
      "gor": 7911,
      "gest": 7912,
      "gab": 7913,
      "gun": 7914,
      "giv": 7915,
      "gaw": 7916,
      "gale": 7917,
      "games": 7918,
      "gilly": 7919,
      "german": 7920,
      "hent": 7921,
      "hild": 7922,
      "hates": 7923,
      "hann": 7924,
      "hilt": 7925,
      "ic": 7926,
      "jay": 7927,
      "jose": 7928,
      "jaunt": 7929,
      "jars": 7930,
      "jades": 7931,
      "ker": 7932,
      "kates": 7933,
      "lt": 7934,
      "lon": 7935,
      "lan": 7936,
      "lone": 7937,
      "lau": 7938,
      "lure": 7939,
      "lag": 7940,
      "lave": 7941,
      "latter": 7942,
      "lime": 7943,
      "lump": 7944,
      "lines": 7945,
      "lances": 7946,
      "mi": 7947,
      "mit": 7948,
      "na": 7949,
      "ner": 7950,
      "nich": 7951,
      "nation": 7952,
      "oly": 7953,
      "oil": 7954,
      "oun": 7955,
      "ps": 7956,
      "ply": 7957,
      "pink": 7958,
      "pies": 7959,
      "pang": 7960,
      "pout": 7961,
      "pump": 7962,
      "punk": 7963,
      "phe": 7964,
      "rh": 7965,
      "ris": 7966,
      "rop": 7967,
      "rite": 7968,
      "riv": 7969,
      "range": 7970,
      "rounds": 7971,
      "rider": 7972,
      "roots": 7973,
      "rival": 7974,
      "rayed": 7975,
      "riot": 7976,
      "roused": 7977,
      "sou": 7978,
      "sce": 7979,
      "scent": 7980,
      "sip": 7981,
      "sne": 7982,
      "size": 7983,
      "soothing": 7984,
      "tet": 7985,
      "tore": 7986,
      "til": 7987,
      "tough": 7988,
      "tith": 7989,
      "testy": 7990,
      "tires": 7991,
      "taming": 7992,
      "tilth": 7993,
      "tumble": 7994,
      "tables": 7995,
      "tickle": 7996,
      "va": 7997,
      "vall": 7998,
      "vag": 7999,
      "viz": 8000,
      "vel": 8001,
      "waded": 8002,
      "##len": 8003,
      "##late": 8004,
      "##look": 8005,
      "##lance": 8006,
      "##lower": 8007,
      "##lars": 8008,
      "##luous": 8009,
      "##oat": 8010,
      "##oan": 8011,
      "##oli": 8012,
      "##oil": 8013,
      "##opp": 8014,
      "##off": 8015,
      "##oise": 8016,
      "##oever": 8017,
      "##oicing": 8018,
      "##oderate": 8019,
      "##uance": 8020,
      "##ugs": 8021,
      "##ucing": 8022,
      "##upper": 8023,
      "##ris": 8024,
      "##ron": 8025,
      "##rent": 8026,
      "##rius": 8027,
      "##rine": 8028,
      "##resh": 8029,
      "##roof": 8030,
      "##rising": 8031,
      "##iency": 8032,
      "##ivering": 8033,
      "##side": 8034,
      "##hall": 8035,
      "##house": 8036,
      "##hips": 8037,
      "##holesome": 8038,
      "##nut": 8039,
      "##nard": 8040,
      "##gess": 8041,
      "##got": 8042,
      "##gance": 8043,
      "##gger": 8044,
      "##gression": 8045,
      "##aos": 8046,
      "##aces": 8047,
      "##take": 8048,
      "##tage": 8049,
      "##turn": 8050,
      "##eb": 8051,
      "##eves": 8052,
      "##eling": 8053,
      "##equ": 8054,
      "##eved": 8055,
      "##eaded": 8056,
      "##dp": 8057,
      "##dles": 8058,
      "##dains": 8059,
      "##yers": 8060,
      "##co": 8061,
      "##cer": 8062,
      "##cre": 8063,
      "##cad": 8064,
      "##core": 8065,
      "##cence": 8066,
      "##cast": 8067,
      "##cies": 8068,
      "##cass": 8069,
      "##cible": 8070,
      "##content": 8071,
      "##cestershire": 8072,
      "##vity": 8073,
      "##vors": 8074,
      "##mor": 8075,
      "##med": 8076,
      "##mast": 8077,
      "##mong": 8078,
      "##mber": 8079,
      "##msey": 8080,
      "##metic": 8081,
      "##maker": 8082,
      "##bri": 8083,
      "##back": 8084,
      "##blind": 8085,
      "##pes": 8086,
      "##pan": 8087,
      "##pore": 8088,
      "##pill": 8089,
      "##pate": 8090,
      "##press": 8091,
      "##pired": 8092,
      "##poc": 8093,
      "##fes": 8094,
      "##fter": 8095,
      "##fast": 8096,
      "##fig": 8097,
      "##fied": 8098,
      "##fathers": 8099,
      "##fellows": 8100,
      "##wood": 8101,
      "##wart": 8102,
      "##work": 8103,
      "##xy": 8104,
      "##xcom": 8105,
      "##ky": 8106,
      "##kil": 8107,
      "##kers": 8108,
      "##zed": 8109,
      "##zie": 8110,
      "##journ": 8111,
      "##quel": 8112,
      "thim": 8113,
      "thigh": 8114,
      "thaw": 8115,
      "##erve": 8116,
      "##eral": 8117,
      "##erness": 8118,
      "##eriff": 8119,
      "##init": 8120,
      "##inest": 8121,
      "##inter": 8122,
      "##inence": 8123,
      "##inant": 8124,
      "##inish": 8125,
      "##inces": 8126,
      "##inary": 8127,
      "##inions": 8128,
      "##orm": 8129,
      "##orable": 8130,
      "##orpor": 8131,
      "##atri": 8132,
      "##enious": 8133,
      "##enzie": 8134,
      "##ark": 8135,
      "##arling": 8136,
      "##arable": 8137,
      "##argy": 8138,
      "##arallel": 8139,
      "##esnes": 8140,
      "##llist": 8141,
      "tot": 8142,
      "toes": 8143,
      "topping": 8144,
      "tokens": 8145,
      "##ism": 8146,
      "##isite": 8147,
      "##isans": 8148,
      "##tha": 8149,
      "##there": 8150,
      "##things": 8151,
      "##thread": 8152,
      "##thrown": 8153,
      "##onies": 8154,
      "##onition": 8155,
      "##onstr": 8156,
      "##anor": 8157,
      "##anied": 8158,
      "nodd": 8159,
      "noisome": 8160,
      "nothings": 8161,
      "whel": 8162,
      "##omy": 8163,
      "##omm": 8164,
      "##omen": 8165,
      "##omed": 8166,
      "##omest": 8167,
      "##ominable": 8168,
      "wive": 8169,
      "wield": 8170,
      "##reth": 8171,
      "##regn": 8172,
      "##rehe": 8173,
      "bem": 8174,
      "beck": 8175,
      "beque": 8176,
      "##stal": 8177,
      "##stone": 8178,
      "##stones": 8179,
      "##edit": 8180,
      "hewn": 8181,
      "heated": 8182,
      "heaved": 8183,
      "invest": 8184,
      "inforced": 8185,
      "inex": 8186,
      "##chy": 8187,
      "##ched": 8188,
      "##chion": 8189,
      "##child": 8190,
      "##chets": 8191,
      "##changing": 8192,
      "hal": 8193,
      "hay": 8194,
      "hack": 8195,
      "hacket": 8196,
      "haggard": 8197,
      "##etry": 8198,
      "##ettled": 8199,
      "##cends": 8200,
      "##cease": 8201,
      "##ceives": 8202,
      "##sely": 8203,
      "##utor": 8204,
      "##utish": 8205,
      "shy": 8206,
      "shoo": 8207,
      "shoot": 8208,
      "shaken": 8209,
      "sheriff": 8210,
      "##aybe": 8211,
      "fork": 8212,
      "foren": 8213,
      "forem": 8214,
      "forfend": 8215,
      "forfeits": 8216,
      "##irt": 8217,
      "##erel": 8218,
      "##ereth": 8219,
      "meek": 8220,
      "##urer": 8221,
      "##urre": 8222,
      "##uries": 8223,
      "##urally": 8224,
      "notable": 8225,
      "withholds": 8226,
      "##iter": 8227,
      "##itle": 8228,
      "##itic": 8229,
      "##itied": 8230,
      "##itud": 8231,
      "##itting": 8232,
      "##itution": 8233,
      "##imy": 8234,
      "##ooch": 8235,
      "##oosing": 8236,
      "wean": 8237,
      "weeks": 8238,
      "stake": 8239,
      "stings": 8240,
      "station": 8241,
      "states": 8242,
      "stair": 8243,
      "stains": 8244,
      "staves": 8245,
      "stool": 8246,
      "stamps": 8247,
      "stitch": 8248,
      "stoned": 8249,
      "itch": 8250,
      "##enting": 8251,
      "##entation": 8252,
      "##uspect": 8253,
      "##add": 8254,
      "##ading": 8255,
      "pror": 8256,
      "prone": 8257,
      "prig": 8258,
      "prud": 8259,
      "prank": 8260,
      "prized": 8261,
      "prenzie": 8262,
      "asks": 8263,
      "asunder": 8264,
      "##aths": 8265,
      "hiss": 8266,
      "sol": 8267,
      "sops": 8268,
      "soever": 8269,
      "softer": 8270,
      "sojourn": 8271,
      "##ids": 8272,
      "##iding": 8273,
      "##idity": 8274,
      "liby": 8275,
      "libr": 8276,
      "licence": 8277,
      "##amour": 8278,
      "##ampt": 8279,
      "##ample": 8280,
      "##amations": 8281,
      "##asp": 8282,
      "##allible": 8283,
      "doers": 8284,
      "doff": 8285,
      "defe": 8286,
      "deem": 8287,
      "deity": 8288,
      "deign": 8289,
      "deuc": 8290,
      "##essors": 8291,
      "fraught": 8292,
      "##cks": 8293,
      "sem": 8294,
      "sect": 8295,
      "sevent": 8296,
      "semb": 8297,
      "seats": 8298,
      "seals": 8299,
      "seeds": 8300,
      "sequel": 8301,
      "willow": 8302,
      "reve": 8303,
      "reins": 8304,
      "reek": 8305,
      "##geth": 8306,
      "##genders": 8307,
      "##rav": 8308,
      "##rave": 8309,
      "##rase": 8310,
      "##raction": 8311,
      "##lix": 8312,
      "##live": 8313,
      "##liest": 8314,
      "##lict": 8315,
      "##lips": 8316,
      "gobl": 8317,
      "alla": 8318,
      "ally": 8319,
      "allied": 8320,
      "allaying": 8321,
      "##andon": 8322,
      "heretic": 8323,
      "heredit": 8324,
      "##peth": 8325,
      "##verent": 8326,
      "sust": 8327,
      "sums": 8328,
      "##tering": 8329,
      "logs": 8330,
      "logic": 8331,
      "losing": 8332,
      "lolling": 8333,
      "logger": 8334,
      "maw": 8335,
      "maim": 8336,
      "magn": 8337,
      "makest": 8338,
      "makers": 8339,
      "trot": 8340,
      "triv": 8341,
      "trident": 8342,
      "trample": 8343,
      "neap": 8344,
      "neph": 8345,
      "brood": 8346,
      "brick": 8347,
      "brush": 8348,
      "briers": 8349,
      "brats": 8350,
      "brutish": 8351,
      "brooch": 8352,
      "chin": 8353,
      "chest": 8354,
      "chatter": 8355,
      "chann": 8356,
      "chairs": 8357,
      "chants": 8358,
      "choked": 8359,
      "chests": 8360,
      "chaos": 8361,
      "choosing": 8362,
      "bol": 8363,
      "boil": 8364,
      "knots": 8365,
      "comfor": 8366,
      "upb": 8367,
      "upholds": 8368,
      "upturn": 8369,
      "leash": 8370,
      "leaf": 8371,
      "unv": 8372,
      "unable": 8373,
      "unapt": 8374,
      "unfort": 8375,
      "unking": 8376,
      "unmer": 8377,
      "ungr": 8378,
      "unbe": 8379,
      "unres": 8380,
      "unadv": 8381,
      "orb": 8382,
      "orison": 8383,
      "orange": 8384,
      "orators": 8385,
      "orders": 8386,
      "oratory": 8387,
      "##iless": 8388,
      "##ilities": 8389,
      "##iliments": 8390,
      "##few": 8391,
      "sheer": 8392,
      "shelves": 8393,
      "##uman": 8394,
      "fac": 8395,
      "conn": 8396,
      "conv": 8397,
      "conject": 8398,
      "conceived": 8399,
      "moth": 8400,
      "monday": 8401,
      "hereof": 8402,
      "duck": 8403,
      "dugs": 8404,
      "mann": 8405,
      "manors": 8406,
      "mansion": 8407,
      "ample": 8408,
      "##aky": 8409,
      "##oneous": 8410,
      "letting": 8411,
      "moreover": 8412,
      "encl": 8413,
      "engenders": 8414,
      "##aucas": 8415,
      "##earse": 8416,
      "proves": 8417,
      "project": 8418,
      "probation": 8419,
      "prolong": 8420,
      "progress": 8421,
      "prolix": 8422,
      "##astly": 8423,
      "##asters": 8424,
      "##astery": 8425,
      "bled": 8426,
      "blench": 8427,
      "blaz": 8428,
      "blub": 8429,
      "blank": 8430,
      "blanks": 8431,
      "canon": 8432,
      "howling": 8433,
      "howsoever": 8434,
      "##ics": 8435,
      "##icoat": 8436,
      "##abb": 8437,
      "##abond": 8438,
      "##abouts": 8439,
      "##emaker": 8440,
      "##empore": 8441,
      "arro": 8442,
      "arith": 8443,
      "arraign": 8444,
      "swan": 8445,
      "sways": 8446,
      "swept": 8447,
      "switch": 8448,
      "##aph": 8449,
      "##apert": 8450,
      "##olas": 8451,
      "##olved": 8452,
      "##olog": 8453,
      "##olitan": 8454,
      "cloy": 8455,
      "clang": 8456,
      "clout": 8457,
      "clime": 8458,
      "clutch": 8459,
      "clusters": 8460,
      "loveth": 8461,
      "lovelier": 8462,
      "##unc": 8463,
      "##unction": 8464,
      "grin": 8465,
      "grind": 8466,
      "grip": 8467,
      "grud": 8468,
      "grains": 8469,
      "grateful": 8470,
      "grudge": 8471,
      "gripe": 8472,
      "graybe": 8473,
      "pond": 8474,
      "ponder": 8475,
      "pots": 8476,
      "poten": 8477,
      "poets": 8478,
      "poetry": 8479,
      "richer": 8480,
      "usest": 8481,
      "usual": 8482,
      "##ortive": 8483,
      "warp": 8484,
      "greek": 8485,
      "hog": 8486,
      "hob": 8487,
      "hose": 8488,
      "hoard": 8489,
      "hover": 8490,
      "hoist": 8491,
      "whereat": 8492,
      "worcester": 8493,
      "working": 8494,
      "##ondam": 8495,
      "plun": 8496,
      "plack": 8497,
      "plaster": 8498,
      "plume": 8499,
      "plagues": 8500,
      "madmen": 8501,
      "##inkle": 8502,
      "ague": 8503,
      "##otent": 8504,
      "##otchets": 8505,
      "##igm": 8506,
      "##igate": 8507,
      "##igree": 8508,
      "glance": 8509,
      "glitter": 8510,
      "menace": 8511,
      "spawn": 8512,
      "spacious": 8513,
      "spakest": 8514,
      "twin": 8515,
      "twist": 8516,
      "twos": 8517,
      "graver": 8518,
      "gravity": 8519,
      "grapes": 8520,
      "educ": 8521,
      "saves": 8522,
      "##rip": 8523,
      "##ripp": 8524,
      "##riage": 8525,
      "##ffod": 8526,
      "outr": 8527,
      "outside": 8528,
      "hastily": 8529,
      "gentleness": 8530,
      "##ounce": 8531,
      "##ounts": 8532,
      "abound": 8533,
      "abject": 8534,
      "abominable": 8535,
      "abandon": 8536,
      "abortive": 8537,
      "yorkshire": 8538,
      "exempt": 8539,
      "exiled": 8540,
      "examp": 8541,
      "disli": 8542,
      "disclaim": 8543,
      "disdains": 8544,
      "disfig": 8545,
      "honoura": 8546,
      "coral": 8547,
      "corpse": 8548,
      "cormor": 8549,
      "peg": 8550,
      "pew": 8551,
      "peach": 8552,
      "pelt": 8553,
      "fling": 8554,
      "flap": 8555,
      "flout": 8556,
      "flav": 8557,
      "flung": 8558,
      "##agon": 8559,
      "##aging": 8560,
      "##agion": 8561,
      "##agued": 8562,
      "hearers": 8563,
      "hearken": 8564,
      "hearkens": 8565,
      "gloucestershire": 8566,
      "earls": 8567,
      "##wness": 8568,
      "##ignation": 8569,
      "bloods": 8570,
      "breton": 8571,
      "awaking": 8572,
      "awaken": 8573,
      "##ianced": 8574,
      "##berate": 8575,
      "##berries": 8576,
      "##onted": 8577,
      "desiring": 8578,
      "desperation": 8579,
      "perver": 8580,
      "perfid": 8581,
      "peruse": 8582,
      "pertinent": 8583,
      "perceives": 8584,
      "lull": 8585,
      "lucy": 8586,
      "quest": 8587,
      "quaff": 8588,
      "quondam": 8589,
      "eyel": 8590,
      "##idels": 8591,
      "vincet": 8592,
      "arts": 8593,
      "artif": 8594,
      "praying": 8595,
      "prayed": 8596,
      "adding": 8597,
      "adjud": 8598,
      "merits": 8599,
      "merited": 8600,
      "betid": 8601,
      "betake": 8602,
      "##iolable": 8603,
      "##ensible": 8604,
      "##opled": 8605,
      "strings": 8606,
      "strains": 8607,
      "straining": 8608,
      "standers": 8609,
      "standards": 8610,
      "##pture": 8611,
      "##angled": 8612,
      "cramps": 8613,
      "crims": 8614,
      "crupper": 8615,
      "crotchets": 8616,
      "lawn": 8617,
      "sci": 8618,
      "scale": 8619,
      "scales": 8620,
      "scathe": 8621,
      "scapes": 8622,
      "scoff": 8623,
      "sweeting": 8624,
      "erchar": 8625,
      "erbear": 8626,
      "counts": 8627,
      "foem": 8628,
      "foison": 8629,
      "cannon": 8630,
      "partisans": 8631,
      "predom": 8632,
      "precept": 8633,
      "precip": 8634,
      "anything": 8635,
      "handled": 8636,
      "namely": 8637,
      "coil": 8638,
      "coven": 8639,
      "codp": 8640,
      "coxcom": 8641,
      "##derick": 8642,
      "bearer": 8643,
      "##reech": 8644,
      "headlong": 8645,
      "julietta": 8646,
      "meanest": 8647,
      "seconds": 8648,
      "contain": 8649,
      "contains": 8650,
      "controll": 8651,
      "containing": 8652,
      "contagion": 8653,
      "remit": 8654,
      "paw": 8655,
      "paced": 8656,
      "afire": 8657,
      "slower": 8658,
      "slumber": 8659,
      "slaughters": 8660,
      "slavish": 8661,
      "staying": 8662,
      "##gary": 8663,
      "begs": 8664,
      "begn": 8665,
      "##aching": 8666,
      "armies": 8667,
      "presage": 8668,
      "servile": 8669,
      "servitor": 8670,
      "repreh": 8671,
      "replen": 8672,
      "vied": 8673,
      "viand": 8674,
      "viper": 8675,
      "vials": 8676,
      "merciless": 8677,
      "##pher": 8678,
      "##phin": 8679,
      "##phey": 8680,
      "##atches": 8681,
      "graceful": 8682,
      "graceless": 8683,
      "eyesight": 8684,
      "wombs": 8685,
      "cities": 8686,
      "footed": 8687,
      "childhood": 8688,
      "evening": 8689,
      "thrall": 8690,
      "buckler": 8691,
      "resides": 8692,
      "setter": 8693,
      "resting": 8694,
      "restore": 8695,
      "restless": 8696,
      "camp": 8697,
      "cambric": 8698,
      "##iply": 8699,
      "##ipod": 8700,
      "consum": 8701,
      "consents": 8702,
      "conspire": 8703,
      "sicils": 8704,
      "frivol": 8705,
      "drain": 8706,
      "drench": 8707,
      "drudge": 8708,
      "drugs": 8709,
      "betters": 8710,
      "bettering": 8711,
      "mista": 8712,
      "tying": 8713,
      "type": 8714,
      "tongued": 8715,
      "compet": 8716,
      "compact": 8717,
      "##issive": 8718,
      "aub": 8719,
      "augment": 8720,
      "besp": 8721,
      "province": 8722,
      "provision": 8723,
      "twofold": 8724,
      "jog": 8725,
      "jolly": 8726,
      "##ended": 8727,
      "bestir": 8728,
      "bestrew": 8729,
      "sleeve": 8730,
      "sleeves": 8731,
      "murderers": 8732,
      "accustom": 8733,
      "accounted": 8734,
      "follower": 8735,
      "purg": 8736,
      "purest": 8737,
      "purity": 8738,
      "purblind": 8739,
      "kindle": 8740,
      "kindest": 8741,
      "curb": 8742,
      "cures": 8743,
      "curds": 8744,
      "curfew": 8745,
      "farmer": 8746,
      "confine": 8747,
      "confident": 8748,
      "confisc": 8749,
      "conform": 8750,
      "conflict": 8751,
      "smear": 8752,
      "smock": 8753,
      "smoke": 8754,
      "guide": 8755,
      "guile": 8756,
      "guides": 8757,
      "highly": 8758,
      "pardoning": 8759,
      "treads": 8760,
      "subs": 8761,
      "submit": 8762,
      "substantial": 8763,
      "charter": 8764,
      "ivy": 8765,
      "righteous": 8766,
      "apes": 8767,
      "apish": 8768,
      "apolog": 8769,
      "banns": 8770,
      "brach": 8771,
      "brake": 8772,
      "brands": 8773,
      "braving": 8774,
      "brags": 8775,
      "indu": 8776,
      "indust": 8777,
      "indict": 8778,
      "induced": 8779,
      "index": 8780,
      "indignation": 8781,
      "##ailing": 8782,
      "behove": 8783,
      "beheaded": 8784,
      "emm": 8785,
      "pars": 8786,
      "parks": 8787,
      "parley": 8788,
      "parallel": 8789,
      "paragon": 8790,
      "keepers": 8791,
      "needed": 8792,
      "dregs": 8793,
      "ending": 8794,
      "endless": 8795,
      "apple": 8796,
      "apprehe": 8797,
      "volumes": 8798,
      "benedic": 8799,
      "beneath": 8800,
      "understood": 8801,
      "lawless": 8802,
      "lawyers": 8803,
      "pomphey": 8804,
      "husbandry": 8805,
      "##ledged": 8806,
      "track": 8807,
      "##shell": 8808,
      "justices": 8809,
      "justified": 8810,
      "worthless": 8811,
      "everything": 8812,
      "impiety": 8813,
      "impregn": 8814,
      "helped": 8815,
      "escaped": 8816,
      "nativity": 8817,
      "roe": 8818,
      "roger": 8819,
      "robe": 8820,
      "roared": 8821,
      "robert": 8822,
      "overf": 8823,
      "overboard": 8824,
      "overta": 8825,
      "passages": 8826,
      "passado": 8827,
      "lighted": 8828,
      "lightens": 8829,
      "carver": 8830,
      "carved": 8831,
      "carters": 8832,
      "carbon": 8833,
      "carcass": 8834,
      "carriage": 8835,
      "misg": 8836,
      "misled": 8837,
      "misused": 8838,
      "misbe": 8839,
      "mispl": 8840,
      "misadventure": 8841,
      "devout": 8842,
      "answers": 8843,
      "northampt": 8844,
      "shameful": 8845,
      "unconstant": 8846,
      "uncrown": 8847,
      "engine": 8848,
      "engage": 8849,
      "grumbling": 8850,
      "followed": 8851,
      "falter": 8852,
      "falchion": 8853,
      "answering": 8854,
      "answered": 8855,
      "lasts": 8856,
      "lastly": 8857,
      "meets": 8858,
      "feign": 8859,
      "feigned": 8860,
      "signified": 8861,
      "antipod": 8862,
      "lessen": 8863,
      "lessons": 8864,
      "stately": 8865,
      "disposing": 8866,
      "retort": 8867,
      "retail": 8868,
      "witless": 8869,
      "forges": 8870,
      "forged": 8871,
      "playfellow": 8872,
      "hitherward": 8873,
      "foolery": 8874,
      "doubts": 8875,
      "doubled": 8876,
      "doublets": 8877,
      "##ruised": 8878,
      "proveth": 8879,
      "humours": 8880,
      "humorous": 8881,
      "thankings": 8882,
      "attainder": 8883,
      "sounding": 8884,
      "tape": 8885,
      "tavern": 8886,
      "instigation": 8887,
      "void": 8888,
      "strives": 8889,
      "striving": 8890,
      "strikes": 8891,
      "strifes": 8892,
      "delicious": 8893,
      "delivers": 8894,
      "deliberate": 8895,
      "hangmen": 8896,
      "assign": 8897,
      "assoc": 8898,
      "autumn": 8899,
      "career": 8900,
      "carefully": 8901,
      "denies": 8902,
      "denier": 8903,
      "wantons": 8904,
      "proudly": 8905,
      "revenues": 8906,
      "supposing": 8907,
      "supposes": 8908,
      "dreaming": 8909,
      "shepherdess": 8910,
      "intoler": 8911,
      "entail": 8912,
      "truths": 8913,
      "conduit": 8914,
      "rift": 8915,
      "ribs": 8916,
      "cheat": 8917,
      "cheated": 8918,
      "commonly": 8919,
      "beaver": 8920,
      "promises": 8921,
      "appeach": 8922,
      "freez": 8923,
      "freeze": 8924,
      "unclean": 8925,
      "horseman": 8926,
      "discern": 8927,
      "discomfort": 8928,
      "affable": 8929,
      "affair": 8930,
      "affianced": 8931,
      "crabb": 8932,
      "crazed": 8933,
      "##ifies": 8934,
      "##aws": 8935,
      "##ecessors": 8936,
      "purposed": 8937,
      "throughout": 8938,
      "cape": 8939,
      "capel": 8940,
      "cavil": 8941,
      "sinful": 8942,
      "winning": 8943,
      "##bridge": 8944,
      "wearied": 8945,
      "wearisome": 8946,
      "tendering": 8947,
      "fitly": 8948,
      "fitness": 8949,
      "monastery": 8950,
      "nearness": 8951,
      "crystal": 8952,
      "hardening": 8953,
      "windy": 8954,
      "personally": 8955,
      "runn": 8956,
      "rung": 8957,
      "running": 8958,
      "runagate": 8959,
      "method": 8960,
      "surety": 8961,
      "warranted": 8962,
      "florent": 8963,
      "florence": 8964,
      "reports": 8965,
      "generation": 8966,
      "generally": 8967,
      "mettle": 8968,
      "miracle": 8969,
      "trusted": 8970,
      "untaught": 8971,
      "plucking": 8972,
      "##azz": 8973,
      "recount": 8974,
      "recomfort": 8975,
      "recoil": 8976,
      "bars": 8977,
      "barber": 8978,
      "flying": 8979,
      "foundation": 8980,
      "minim": 8981,
      "minion": 8982,
      "infused": 8983,
      "infallible": 8984,
      "infidels": 8985,
      "confessed": 8986,
      "ruff": 8987,
      "rubs": 8988,
      "rubb": 8989,
      "visits": 8990,
      "beholders": 8991,
      "furious": 8992,
      "furred": 8993,
      "furlong": 8994,
      "furthest": 8995,
      "hungary": 8996,
      "reduce": 8997,
      "redoubted": 8998,
      "wool": 8999,
      "wooer": 9000,
      "readiest": 9001,
      "losses": 9002,
      "tribe": 9003,
      "tribes": 9004,
      "openly": 9005,
      "divides": 9006,
      "divining": 9007,
      "tenor": 9008,
      "tenth": 9009,
      "fasts": 9010,
      "fasten": 9011,
      "entreats": 9012,
      "fourscore": 9013,
      "judas": 9014,
      "judged": 9015,
      "cuts": 9016,
      "surv": 9017,
      "surpl": 9018,
      "surfeits": 9019,
      "surcease": 9020,
      "incertain": 9021,
      "incaged": 9022,
      "incorpor": 9023,
      "leading": 9024,
      "grants": 9025,
      "extir": 9026,
      "extol": 9027,
      "extempore": 9028,
      "boundless": 9029,
      "speeds": 9030,
      "speeding": 9031,
      "acre": 9032,
      "cleans": 9033,
      "nobody": 9034,
      "mocks": 9035,
      "mocked": 9036,
      "posture": 9037,
      "planted": 9038,
      "honestly": 9039,
      "attending": 9040,
      "attendance": 9041,
      "attendants": 9042,
      "dames": 9043,
      "damask": 9044,
      "venus": 9045,
      "venuto": 9046,
      "pointed": 9047,
      "flattery": 9048,
      "strengths": 9049,
      "distance": 9050,
      "distraught": 9051,
      "distilled": 9052,
      "distraction": 9053,
      "fields": 9054,
      "geese": 9055,
      "wretches": 9056,
      "ladder": 9057,
      "ravish": 9058,
      "raising": 9059,
      "wedlock": 9060,
      "pretend": 9061,
      "harmful": 9062,
      "bravely": 9063,
      "skies": 9064,
      "cheering": 9065,
      "singing": 9066,
      "singled": 9067,
      "ordered": 9068,
      "plainness": 9069,
      "perdition": 9070,
      "acted": 9071,
      "drove": 9072,
      "dropping": 9073,
      "fetter": 9074,
      "garish": 9075,
      "pieced": 9076,
      "regent": 9077,
      "marches": 9078,
      "blacker": 9079,
      "vein": 9080,
      "veriest": 9081,
      "verified": 9082,
      "##acre": 9083,
      "##aculate": 9084,
      "weaker": 9085,
      "privily": 9086,
      "spright": 9087,
      "sprang": 9088,
      "sprung": 9089,
      "exposed": 9090,
      "forgetfulness": 9091,
      "evidence": 9092,
      "jests": 9093,
      "interr": 9094,
      "interior": 9095,
      "malady": 9096,
      "malcontent": 9097,
      "malmsey": 9098,
      "malapert": 9099,
      "pedigree": 9100,
      "throws": 9101,
      "moveable": 9102,
      "proceeds": 9103,
      "proceeded": 9104,
      "groats": 9105,
      "writes": 9106,
      "consenting": 9107,
      "waist": 9108,
      "broil": 9109,
      "encamp": 9110,
      "cursing": 9111,
      "denying": 9112,
      "dangerously": 9113,
      "battlements": 9114,
      "quarrels": 9115,
      "bleared": 9116,
      "feels": 9117,
      "mortals": 9118,
      "penet": 9119,
      "penalty": 9120,
      "sighing": 9121,
      "undes": 9122,
      "undisc": 9123,
      "violation": 9124,
      "violets": 9125,
      "forego": 9126,
      "forefather": 9127,
      "victor": 9128,
      "victors": 9129,
      "respecting": 9130,
      "destined": 9131,
      "destinies": 9132,
      "eats": 9133,
      "galled": 9134,
      "lamented": 9135,
      "opport": 9136,
      "oppress": 9137,
      "inside": 9138,
      "insatiate": 9139,
      "insurre": 9140,
      "insensible": 9141,
      "princip": 9142,
      "scarr": 9143,
      "scarf": 9144,
      "scared": 9145,
      "complot": 9146,
      "compliment": 9147,
      "complots": 9148,
      "dreaded": 9149,
      "bitterest": 9150,
      "babies": 9151,
      "ldst": 9152,
      "limed": 9153,
      "pities": 9154,
      "wiser": 9155,
      "defaced": 9156,
      "deflower": 9157,
      "definit": 9158,
      "dishonest": 9159,
      "dishonours": 9160,
      "dishonourable": 9161,
      "possessions": 9162,
      "successes": 9163,
      "successively": 9164,
      "coloured": 9165,
      "hurry": 9166,
      "hurts": 9167,
      "paying": 9168,
      "payment": 9169,
      "##grown": 9170,
      "forwardness": 9171,
      "churl": 9172,
      "unwise": 9173,
      "unwholesome": 9174,
      "unwonted": 9175,
[...]
